{
  "version": "1.0",
  "truncation": {
    "direction": "Right",
    "max_length": 128,
    "strategy": "LongestFirst",
    "stride": 0
  },
  "padding": {
    "strategy": {
      "Fixed": 128
    },
    "direction": "Right",
    "pad_to_multiple_of": null,
    "pad_id": 0,
    "pad_type_id": 0,
    "pad_token": "[PAD]"
  },
  "added_tokens": [
    {
      "id": 0,
      "content": "[PAD]",
      "single_word": false,
      "lstrip": false,
      "rstrip": false,
      "normalized": false,
      "special": true
    },
    {
      "id": 1,
      "content": "[UNK]",
      "single_word": false,
      "lstrip": false,
      "rstrip": false,
      "normalized": false,
      "special": true
    },
    {
      "id": 2,
      "content": "[CLS]",
      "single_word": false,
      "lstrip": false,
      "rstrip": false,
      "normalized": false,
      "special": true
    },
    {
      "id": 3,
      "content": "[SEP]",
      "single_word": false,
      "lstrip": false,
      "rstrip": false,
      "normalized": false,
      "special": true
    },
    {
      "id": 4,
      "content": "[MASK]",
      "single_word": false,
      "lstrip": false,
      "rstrip": false,
      "normalized": false,
      "special": true
    }
  ],
  "normalizer": {
    "type": "BertNormalizer",
    "clean_text": true,
    "handle_chinese_chars": false,
    "strip_accents": null,
    "lowercase": false
  },
  "pre_tokenizer": {
    "type": "BertPreTokenizer"
  },
  "post_processor": {
    "type": "TemplateProcessing",
    "single": [
      {
        "SpecialToken": {
          "id": "[CLS]",
          "type_id": 0
        }
      },
      {
        "Sequence": {
          "id": "A",
          "type_id": 0
        }
      },
      {
        "SpecialToken": {
          "id": "[SEP]",
          "type_id": 0
        }
      }
    ],
    "pair": [
      {
        "SpecialToken": {
          "id": "[CLS]",
          "type_id": 0
        }
      },
      {
        "Sequence": {
          "id": "A",
          "type_id": 0
        }
      },
      {
        "SpecialToken": {
          "id": "[SEP]",
          "type_id": 0
        }
      },
      {
        "Sequence": {
          "id": "B",
          "type_id": 1
        }
      },
      {
        "SpecialToken": {
          "id": "[SEP]",
          "type_id": 1
        }
      }
    ],
    "special_tokens": {
      "[CLS]": {
        "id": "[CLS]",
        "ids": [
          2
        ],
        "tokens": [
          "[CLS]"
        ]
      },
      "[SEP]": {
        "id": "[SEP]",
        "ids": [
          3
        ],
        "tokens": [
          "[SEP]"
        ]
      }
    }
  },
  "decoder": {
    "type": "WordPiece",
    "prefix": "##",
    "cleanup": true
  },
  "model": {
    "type": "WordPiece",
    "unk_token": "[UNK]",
    "continuing_subword_prefix": "##",
    "max_input_chars_per_word": 100,
    "vocab": {
      "[PAD]": 0,
      "[UNK]": 1,
      "[CLS]": 2,
      "[SEP]": 3,
      "[MASK]": 4,
      "!": 5,
      "\"": 6,
      "#": 7,
      "$": 8,
      "%": 9,
      "&": 10,
      "'": 11,
      "(": 12,
      ")": 13,
      "*": 14,
      "+": 15,
      ",": 16,
      "-": 17,
      ".": 18,
      "/": 19,
      "0": 20,
      "1": 21,
      "2": 22,
      "3": 23,
      "4": 24,
      "5": 25,
      "6": 26,
      "7": 27,
      "8": 28,
      "9": 29,
      ":": 30,
      ";": 31,
      "<": 32,
      "=": 33,
      ">": 34,
      "?": 35,
      "@": 36,
      "A": 37,
      "B": 38,
      "C": 39,
      "D": 40,
      "E": 41,
      "F": 42,
      "G": 43,
      "H": 44,
      "I": 45,
      "J": 46,
      "K": 47,
      "L": 48,
      "M": 49,
      "N": 50,
      "O": 51,
      "P": 52,
      "Q": 53,
      "R": 54,
      "S": 55,
      "T": 56,
      "U": 57,
      "V": 58,
      "W": 59,
      "X": 60,
      "Y": 61,
      "Z": 62,
      "[": 63,
      "\\": 64,
      "]": 65,
      "^": 66,
      "_": 67,
      "`": 68,
      "a": 69,
      "b": 70,
      "c": 71,
      "d": 72,
      "e": 73,
      "f": 74,
      "g": 75,
      "h": 76,
      "i": 77,
      "j": 78,
      "k": 79,
      "l": 80,
      "m": 81,
      "n": 82,
      "o": 83,
      "p": 84,
      "q": 85,
      "r": 86,
      "s": 87,
      "t": 88,
      "u": 89,
      "v": 90,
      "w": 91,
      "x": 92,
      "y": 93,
      "z": 94,
      "{": 95,
      "|": 96,
      "}": 97,
      "~": 98,
      "¤": 99,
      "¦": 100,
      "©": 101,
      "®": 102,
      "°": 103,
      "·": 104,
      "×": 105,
      "þ": 106,
      "œ": 107,
      "̄": 108,
      "а": 109,
      "в": 110,
      "д": 111,
      "е": 112,
      "и": 113,
      "к": 114,
      "л": 115,
      "м": 116,
      "н": 117,
      "о": 118,
      "п": 119,
      "р": 120,
      "с": 121,
      "т": 122,
      "у": 123,
      "،": 124,
      "ء": 125,
      "آ": 126,
      "أ": 127,
      "ؤ": 128,
      "إ": 129,
      "ئ": 130,
      "ا": 131,
      "ب": 132,
      "ة": 133,
      "ت": 134,
      "ث": 135,
      "ج": 136,
      "ح": 137,
      "خ": 138,
      "د": 139,
      "ذ": 140,
      "ر": 141,
      "ز": 142,
      "س": 143,
      "ش": 144,
      "ص": 145,
      "ض": 146,
      "ط": 147,
      "ظ": 148,
      "ع": 149,
      "غ": 150,
      "ف": 151,
      "ق": 152,
      "ك": 153,
      "ل": 154,
      "م": 155,
      "ن": 156,
      "ه": 157,
      "و": 158,
      "ى": 159,
      "ي": 160,
      "ً": 161,
      "ٌ": 162,
      "ٍ": 163,
      "َ": 164,
      "ُ": 165,
      "ِ": 166,
      "ّ": 167,
      "ْ": 168,
      "ٰ": 169,
      "ی": 170,
      "ۡ": 171,
      "ं": 172,
      "अ": 173,
      "आ": 174,
      "क": 175,
      "ग": 176,
      "च": 177,
      "ज": 178,
      "ट": 179,
      "ड": 180,
      "ण": 181,
      "त": 182,
      "द": 183,
      "न": 184,
      "प": 185,
      "ब": 186,
      "भ": 187,
      "म": 188,
      "य": 189,
      "र": 190,
      "ल": 191,
      "व": 192,
      "श": 193,
      "स": 194,
      "ह": 195,
      "ा": 196,
      "ि": 197,
      "ी": 198,
      "ु": 199,
      "ू": 200,
      "े": 201,
      "ै": 202,
      "ो": 203,
      "्": 204,
      "।": 205,
      "॥": 206,
      "ঁ": 207,
      "ং": 208,
      "ঃ": 209,
      "অ": 210,
      "আ": 211,
      "ই": 212,
      "ঈ": 213,
      "উ": 214,
      "ঊ": 215,
      "ঋ": 216,
      "এ": 217,
      "ঐ": 218,
      "ও": 219,
      "ঔ": 220,
      "ক": 221,
      "খ": 222,
      "গ": 223,
      "ঘ": 224,
      "ঙ": 225,
      "চ": 226,
      "ছ": 227,
      "জ": 228,
      "ঝ": 229,
      "ঞ": 230,
      "ট": 231,
      "ঠ": 232,
      "ড": 233,
      "ঢ": 234,
      "ণ": 235,
      "ত": 236,
      "থ": 237,
      "দ": 238,
      "ধ": 239,
      "ন": 240,
      "প": 241,
      "ফ": 242,
      "ব": 243,
      "ভ": 244,
      "ম": 245,
      "য": 246,
      "র": 247,
      "ল": 248,
      "শ": 249,
      "ষ": 250,
      "স": 251,
      "হ": 252,
      "়": 253,
      "ঽ": 254,
      "া": 255,
      "ি": 256,
      "ী": 257,
      "ু": 258,
      "ূ": 259,
      "ৃ": 260,
      "ে": 261,
      "ৈ": 262,
      "ো": 263,
      "ৌ": 264,
      "্": 265,
      "ৎ": 266,
      "৐": 267,
      "৤": 268,
      "০": 269,
      "১": 270,
      "২": 271,
      "৩": 272,
      "৪": 273,
      "৫": 274,
      "৬": 275,
      "৭": 276,
      "৮": 277,
      "৯": 278,
      "ৰ": 279,
      "ৱ": 280,
      "ં": 281,
      "ક": 282,
      "જ": 283,
      "ત": 284,
      "ન": 285,
      "પ": 286,
      "મ": 287,
      "ય": 288,
      "ર": 289,
      "વ": 290,
      "સ": 291,
      "હ": 292,
      "ા": 293,
      "ી": 294,
      "ુ": 295,
      "ે": 296,
      "ો": 297,
      "્": 298,
      "க": 299,
      "ச": 300,
      "ட": 301,
      "த": 302,
      "ந": 303,
      "ன": 304,
      "ப": 305,
      "ம": 306,
      "ய": 307,
      "ர": 308,
      "ற": 309,
      "ல": 310,
      "வ": 311,
      "ா": 312,
      "ி": 313,
      "ு": 314,
      "ை": 315,
      "்": 316,
      "ం": 317,
      "క": 318,
      "న": 319,
      "ర": 320,
      "ా": 321,
      "ి": 322,
      "ు": 323,
      "్": 324,
      "ಂ": 325,
      "ಕ": 326,
      "ಗ": 327,
      "ತ": 328,
      "ದ": 329,
      "ನ": 330,
      "ಮ": 331,
      "ರ": 332,
      "ಲ": 333,
      "ವ": 334,
      "ಾ": 335,
      "ಿ": 336,
      "ು": 337,
      "ೆ": 338,
      "್": 339,
      "ക": 340,
      "ട": 341,
      "ത": 342,
      "ന": 343,
      "ാ": 344,
      "ി": 345,
      "ു": 346,
      "്": 347,
      "―": 348,
      "†": 349,
      "‡": 350,
      "•": 351,
      "′": 352,
      "→": 353,
      "√": 354,
      "░": 355,
      "■": 356,
      "▬": 357,
      "►": 358,
      "◆": 359,
      "●": 360,
      "★": 361,
      "☆": 362,
      "☺": 363,
      "♣": 364,
      "♥": 365,
      "♦": 366,
      "✍": 367,
      "❏": 368,
      "❤": 369,
      "➡": 370,
      "。": 371,
      "的": 372,
      "️": 373,
      "🌹": 374,
      "🍁": 375,
      "🎶": 376,
      "💐": 377,
      "💕": 378,
      "💖": 379,
      "💝": 380,
      "💞": 381,
      "😀": 382,
      "😁": 383,
      "😂": 384,
      "😄": 385,
      "😅": 386,
      "😉": 387,
      "😊": 388,
      "😍": 389,
      "😏": 390,
      "😒": 391,
      "😔": 392,
      "😘": 393,
      "😜": 394,
      "😠": 395,
      "😡": 396,
      "😢": 397,
      "😭": 398,
      "😱": 399,
      "🙂": 400,
      "🙄": 401,
      "🙏": 402,
      "🤔": 403,
      "🤣": 404,
      "##গ": 405,
      "##ু": 406,
      "##ণ": 407,
      "##্": 408,
      "##ঠ": 409,
      "##ে": 410,
      "##র": 411,
      "##জ": 412,
      "##ো": 413,
      "##ল": 414,
      "##া": 415,
      "##ি": 416,
      "##স": 417,
      "##ন": 418,
      "##য": 419,
      "##়": 420,
      "##ৌ": 421,
      "##ম": 422,
      "##ট": 423,
      "##ই": 424,
      "##ব": 425,
      "##প": 426,
      "##চ": 427,
      "##ী": 428,
      "##ড": 429,
      "##ভ": 430,
      "##ত": 431,
      "##ক": 432,
      "##ফ": 433,
      "##ং": 434,
      "##H": 435,
      "##K": 436,
      "##W": 437,
      "##M": 438,
      "##😔": 439,
      "##এ": 440,
      "##উ": 441,
      "##হ": 442,
      "##e": 443,
      "##w": 444,
      "##a": 445,
      "##h": 446,
      "##o": 447,
      "##u": 448,
      "##g": 449,
      "##t": 450,
      "##দ": 451,
      "##শ": 452,
      "##c": 453,
      "##p": 454,
      "##i": 455,
      "##ಂ": 456,
      "##ಿ": 457,
      "##ಲ": 458,
      "##ঃ": 459,
      "##ূ": 460,
      "##থ": 461,
      "##খ": 462,
      "##ও": 463,
      "##ৃ": 464,
      "##d": 465,
      "##f": 466,
      "##m": 467,
      "##l": 468,
      "##ঁ": 469,
      "##অ": 470,
      "##৫": 471,
      "##r": 472,
      "##B": 473,
      "##n": 474,
      "##y": 475,
      "##ছ": 476,
      "##v": 477,
      "##s": 478,
      "##ঙ": 479,
      "##N": 480,
      "##🙏": 481,
      "##💕": 482,
      "##S": 483,
      "##C": 484,
      "##ষ": 485,
      "##ঘ": 486,
      "##২": 487,
      "##১": 488,
      "##০": 489,
      "##৭": 490,
      "##৬": 491,
      "##ا": 492,
      "##س": 493,
      "##b": 494,
      "##ঞ": 495,
      "##j": 496,
      "##R": 497,
      "##ধ": 498,
      "##и": 499,
      "##н": 500,
      "##k": 501,
      "##ঈ": 502,
      "##ঽ": 503,
      "##৪": 504,
      "##5": 505,
      "##6": 506,
      "##0": 507,
      "##1": 508,
      "##о": 509,
      "##л": 510,
      "##с": 511,
      "##т": 512,
      "##в": 513,
      "##а": 514,
      "##৤": 515,
      "##U": 516,
      "##D": 517,
      "##A": 518,
      "##ु": 519,
      "##र": 520,
      "##ो": 521,
      "##7": 522,
      "##4": 523,
      "##3": 524,
      "##е": 525,
      "##8": 526,
      "##আ": 527,
      "##️": 528,
      "##ಾ": 529,
      "##ಕ": 530,
      "##ವ": 531,
      "##ಗ": 532,
      "##ل": 533,
      "##ْ": 534,
      "##ي": 535,
      "##َ": 536,
      "##و": 537,
      "##م": 538,
      "##ُ": 539,
      "##T": 540,
      "##E": 541,
      "##P": 542,
      "##ৰ": 543,
      "##ৈ": 544,
      "##I": 545,
      "##V": 546,
      "##的": 547,
      "##2": 548,
      "##أ": 549,
      "##ت": 550,
      "##ৎ": 551,
      "##9": 552,
      "##Y": 553,
      "##★": 554,
      "##్": 555,
      "##ు": 556,
      "##ం": 557,
      "##ك": 558,
      "##ن": 559,
      "##L": 560,
      "##F": 561,
      "##x": 562,
      "##৩": 563,
      "##ج": 564,
      "##ز": 565,
      "##ر": 566,
      "##ة": 567,
      "##O": 568,
      "##z": 569,
      "##G": 570,
      "##😠": 571,
      "##😡": 572,
      "##ش": 573,
      "##ح": 574,
      "##৮": 575,
      "##ನ": 576,
      "##ತ": 577,
      "##್": 578,
      "##ು": 579,
      "##ന": 580,
      "##്": 581,
      "##ി": 582,
      "##ു": 583,
      "##ത": 584,
      "##न": 585,
      "##म": 586,
      "##क": 587,
      "##े": 588,
      "##ف": 589,
      "##ء": 590,
      "##ً": 591,
      "##৯": 592,
      "##ग": 593,
      "##ल": 594,
      "##న": 595,
      "##ి": 596,
      "##ِ": 597,
      "##°": 598,
      "##ص": 599,
      "##د": 600,
      "##ّ": 601,
      "##ق": 602,
      "##❤": 603,
      "##💖": 604,
      "##ு": 605,
      "##ர": 606,
      "##ன": 607,
      "##ா": 608,
      "##க": 609,
      "##்": 610,
      "##ட": 611,
      "##ঐ": 612,
      "##q": 613,
      "##ह": 614,
      "##😍": 615,
      "##ி": 616,
      "##ற": 617,
      "##ந": 618,
      "##த": 619,
      "##வ": 620,
      "##ঝ": 621,
      "##ৱ": 622,
      "##خ": 623,
      "##ه": 624,
      "##ை": 625,
      "##ய": 626,
      "##ம": 627,
      "##🙄": 628,
      "##J": 629,
      "##р": 630,
      "##д": 631,
      "##ல": 632,
      "##ঢ": 633,
      "##ঊ": 634,
      "##ঋ": 635,
      "##😭": 636,
      "##©": 637,
      "##X": 638,
      "##Z": 639,
      "##ط": 640,
      "##к": 641,
      "##у": 642,
      "##ా": 643,
      "##😘": 644,
      "##¤": 645,
      "##ा": 646,
      "##ं": 647,
      "##ب": 648,
      "##्": 649,
      "##ण": 650,
      "##غ": 651,
      "##ع": 652,
      "##ર": 653,
      "##ા": 654,
      "##વ": 655,
      "##ી": 656,
      "##ۡ": 657,
      "##द": 658,
      "##ी": 659,
      "##ض": 660,
      "##ക": 661,
      "##ാ": 662,
      "##ട": 663,
      "##😉": 664,
      "##Q": 665,
      "##ન": 666,
      "##ಮ": 667,
      "##ی": 668,
      "##प": 669,
      "##😏": 670,
      "##ट": 671,
      "##×": 672,
      "##ય": 673,
      "##ો": 674,
      "##स": 675,
      "##ٌ": 676,
      "##ರ": 677,
      "##ದ": 678,
      "##ٍ": 679,
      "##ئ": 680,
      "##🎶": 681,
      "##►": 682,
      "##œ": 683,
      "##ப": 684,
      "##ि": 685,
      "##إ": 686,
      "##त": 687,
      "##ક": 688,
      "##य": 689,
      "##श": 690,
      "##آ": 691,
      "##🤔": 692,
      "##ೆ": 693,
      "##😊": 694,
      "##м": 695,
      "##♣": 696,
      "##ब": 697,
      "##ड": 698,
      "##😁": 699,
      "##व": 700,
      "##п": 701,
      "##્": 702,
      "##મ": 703,
      "##च": 704,
      "##भ": 705,
      "##ى": 706,
      "##ذ": 707,
      "##ે": 708,
      "##ત": 709,
      "##ં": 710,
      "##😒": 711,
      "##ै": 712,
      "##🙂": 713,
      "##🍁": 714,
      "##¦": 715,
      "##ज": 716,
      "##ू": 717,
      "##ظ": 718,
      "##😂": 719,
      "##░": 720,
      "##→": 721,
      "##ث": 722,
      "##®": 723,
      "##ٰ": 724,
      "##ુ": 725,
      "##☺": 726,
      "##క": 727,
      "##😜": 728,
      "##જ": 729,
      "##🌹": 730,
      "##😅": 731,
      "##➡": 732,
      "##♦": 733,
      "##ؤ": 734,
      "##♥": 735,
      "##ঔ": 736,
      "##સ": 737,
      "##🤣": 738,
      "##હ": 739,
      "##😢": 740,
      "##💞": 741,
      "##ச": 742,
      "##😀": 743,
      "##◆": 744,
      "##ర": 745,
      "##😱": 746,
      "##💝": 747,
      "##▬": 748,
      "##अ": 749,
      "##✍": 750,
      "##■": 751,
      "##😄": 752,
      "##💐": 753,
      "##●": 754,
      "##आ": 755,
      "##પ": 756,
      "##̄": 757,
      "##þ": 758,
      "##☆": 759,
      "##√": 760,
      "##৐": 761,
      "##য়": 762,
      "##ার": 763,
      "##ের": 764,
      "##্র": 765,
      "##্য": 766,
      "##ান": 767,
      "##য়ে": 768,
      "কর": 769,
      "##্ত": 770,
      "##লে": 771,
      "##কে": 772,
      "##তে": 773,
      "##ছে": 774,
      "##িন": 775,
      "##ায়": 776,
      "##ড়": 777,
      "##বে": 778,
      "##াম": 779,
      "##াল": 780,
      "প্র": 781,
      "##িয়ে": 782,
      "##িক": 783,
      "##ির": 784,
      "আম": 785,
      "##্ব": 786,
      "বা": 787,
      "এক": 788,
      "##াক": 789,
      "##াই": 790,
      "##্ট": 791,
      "করে": 792,
      "##াদ": 793,
      "##িল": 794,
      "না": 795,
      "দে": 796,
      "বি": 797,
      "##ুর": 798,
      "##াস": 799,
      "##টা": 800,
      "##িত": 801,
      "##ন্": 802,
      "##নে": 803,
      "পর": 804,
      "##াত": 805,
      "##টি": 806,
      "##্ষ": 807,
      "##ুল": 808,
      "সে": 809,
      "##য়া": 810,
      "##র্": 811,
      "##াজ": 812,
      "##াব": 813,
      "সম": 814,
      "আর": 815,
      "তা": 816,
      "কি": 817,
      "##েন": 818,
      "##তি": 819,
      "##েল": 820,
      "##্যা": 821,
      "নি": 822,
      "##োন": 823,
      "হয়ে": 824,
      "##রা": 825,
      "তার": 826,
      "##েকে": 827,
      "বল": 828,
      "##বার": 829,
      "এই": 830,
      "যে": 831,
      "##লেন": 832,
      "##দের": 833,
      "##েশ": 834,
      "##চ্": 835,
      "##ন্য": 836,
      "##রে": 837,
      "##িস": 838,
      "সা": 839,
      "##থা": 840,
      "##ঙ্": 841,
      "থেকে": 842,
      "##্প": 843,
      "হয়": 844,
      "দেখ": 845,
      "তো": 846,
      "##ক্ষ": 847,
      "##না": 848,
      "পা": 849,
      "পার": 850,
      "##খন": 851,
      "##গে": 852,
      "##নি": 853,
      "##ন্ত": 854,
      "মা": 855,
      "##াদের": 856,
      "আমি": 857,
      "কা": 858,
      "##্ম": 859,
      "##ুক": 860,
      "##য়ার": 861,
      "##কার": 862,
      "##নের": 863,
      "##দ্": 864,
      "##লো": 865,
      "যা": 866,
      "##ছেন": 867,
      "##্থ": 868,
      "##ুম": 869,
      "##সে": 870,
      "##ছি": 871,
      "##ষ্ট": 872,
      "##ীর": 873,
      "দি": 874,
      "##ানে": 875,
      "নে": 876,
      "কে": 877,
      "আমার": 878,
      "##লা": 879,
      "##ুন": 880,
      "##ন্দ": 881,
      "##িনি": 882,
      "##ধ্য": 883,
      "দু": 884,
      "জান": 885,
      "কোন": 886,
      "##াকে": 887,
      "নিয়ে": 888,
      "সব": 889,
      "##িন্ত": 890,
      "##ছিল": 891,
      "##াগ": 892,
      "##বি": 893,
      "আস": 894,
      "##াপ": 895,
      "বলে": 896,
      "##ড়ে": 897,
      "##ছু": 898,
      "##োগ": 899,
      "জন্য": 900,
      "এব": 901,
      "দিয়ে": 902,
      "এবং": 903,
      "##োর": 904,
      "##তা": 905,
      "সং": 906,
      "##াবে": 907,
      "##দ্ধ": 908,
      "মে": 909,
      "ব্য": 910,
      "মু": 911,
      "##াড়": 912,
      "করা": 913,
      "##ুষ": 914,
      "##্তি": 915,
      "কিছু": 916,
      "কথা": 917,
      "হবে": 918,
      "এর": 919,
      "কিন্ত": 920,
      "কার": 921,
      "##পর": 922,
      "##জন": 923,
      "করতে": 924,
      "কিন্তু": 925,
      "##্ন": 926,
      "##তো": 927,
      "##িশ": 928,
      "##ওয়া": 929,
      "মান": 930,
      "রা": 931,
      "##্ল": 932,
      "তাঁ": 933,
      "অব": 934,
      "থাক": 935,
      "পরি": 936,
      "##কা": 937,
      "##মন": 938,
      "আপ": 939,
      "##্ড": 940,
      "সু": 941,
      "##ীয়": 942,
      "##চ্ছে": 943,
      "##দি": 944,
      "স্ব": 945,
      "##স্ত": 946,
      "অন": 947,
      "নির": 948,
      "একটা": 949,
      "##াহ": 950,
      "##িয়া": 951,
      "##টে": 952,
      "##্রে": 953,
      "তিনি": 954,
      "ছিল": 955,
      "বিশ": 956,
      "##িতে": 957,
      "খু": 958,
      "##িম": 959,
      "##থে": 960,
      "সর": 961,
      "##ঙ্গ": 962,
      "প্রতি": 963,
      "ভাল": 964,
      "যায়": 965,
      "##ন্ধ": 966,
      "##াঁ": 967,
      "##্চ": 968,
      "নিজ": 969,
      "##ারা": 970,
      "##েষ": 971,
      "আছে": 972,
      "উপ": 973,
      "অনে": 974,
      "হয়েছে": 975,
      "##েলে": 976,
      "##দিন": 977,
      "##ৃত": 978,
      "##লাম": 979,
      "##মে": 980,
      "##খে": 981,
      "মধ্য": 982,
      "সেই": 983,
      "##োক": 984,
      "বে": 985,
      "শু": 986,
      "##াতে": 987,
      "কো": 988,
      "অভ": 989,
      "একটি": 990,
      "##ঙ্গে": 991,
      "##গুল": 992,
      "নাম": 993,
      "##্ক": 994,
      "চে": 995,
      "মনে": 996,
      "আজ": 997,
      "সময়": 998,
      "বাড়": 999,
      "##াকা": 1000,
      "দিন": 1001,
      "রাজ": 1002,
      "বাং": 1003,
      "এখন": 1004,
      "##মান": 1005,
      "কাজ": 1006,
      "তোম": 1007,
      "##িয়": 1008,
      "##্দ": 1009,
      "##াত্র": 1010,
      "অনেক": 1011,
      "##র্ত": 1012,
      "বু": 1013,
      "বেশ": 1014,
      "##রের": 1015,
      "##িজ": 1016,
      "##নার": 1017,
      "##্জ": 1018,
      "মানুষ": 1019,
      "##বা": 1020,
      "মধ্যে": 1021,
      "##খানে": 1022,
      "পড়": 1023,
      "##ীব": 1024,
      "##োট": 1025,
      "##্যান": 1026,
      "##ভাবে": 1027,
      "##্ঠ": 1028,
      "আমাদের": 1029,
      "##ুরু": 1030,
      "সঙ্গে": 1031,
      "সাম": 1032,
      "##ত্ত": 1033,
      "##ারে": 1034,
      "পে": 1035,
      "##ওয়ার": 1036,
      "##ন্ত্র": 1037,
      "গে": 1038,
      "##ান্ত": 1039,
      "##য়ের": 1040,
      "দেশ": 1041,
      "সাথে": 1042,
      "##স্থ": 1043,
      "রে": 1044,
      "##্স": 1045,
      "##যোগ": 1046,
      "##লাদ": 1047,
      "##িব": 1048,
      "##ত্য": 1049,
      "করেন": 1050,
      "উঠ": 1051,
      "নেই": 1052,
      "ব্যা": 1053,
      "এসে": 1054,
      "ভালো": 1055,
      "কম": 1056,
      "ক্ষ": 1057,
      "সি": 1058,
      "##মা": 1059,
      "তাদের": 1060,
      "সম্প": 1061,
      "আমরা": 1062,
      "##্ঞ": 1063,
      "##ীন": 1064,
      "##লের": 1065,
      "##ানের": 1066,
      "##স্": 1067,
      "কাছে": 1068,
      "##ত্র": 1069,
      "তাই": 1070,
      "বলেন": 1071,
      "ব্যব": 1072,
      "জন": 1073,
      "মো": 1074,
      "বছ": 1075,
      "অন্য": 1076,
      "গ্র": 1077,
      "কোনো": 1078,
      "তবে": 1079,
      "##রি": 1080,
      "##লাদেশ": 1081,
      "প্রথ": 1082,
      "##ক্ত": 1083,
      "##হার": 1084,
      "বিশ্ব": 1085,
      "বাংলাদেশ": 1086,
      "নয়": 1087,
      "##চার": 1088,
      "##গ্র": 1089,
      "আগে": 1090,
      "##কের": 1091,
      "গেল": 1092,
      "##টার": 1093,
      "গিয়ে": 1094,
      "তখন": 1095,
      "তাঁর": 1096,
      "দিকে": 1097,
      "##বেন": 1098,
      "##ানা": 1099,
      "##ুমি": 1100,
      "##ূর": 1101,
      "##িক্ষ": 1102,
      "খুব": 1103,
      "##চে": 1104,
      "##গুলো": 1105,
      "##েম": 1106,
      "কেন": 1107,
      "আল": 1108,
      "বড়": 1109,
      "##স্ট": 1110,
      "হাস": 1111,
      "##িং": 1112,
      "শেষ": 1113,
      "##েই": 1114,
      "তুমি": 1115,
      "শুরু": 1116,
      "থাকে": 1117,
      "সহ": 1118,
      "এমন": 1119,
      "##সব": 1120,
      "করার": 1121,
      "অর্": 1122,
      "লা": 1123,
      "যদি": 1124,
      "গো": 1125,
      "##পুর": 1126,
      "##প্র": 1127,
      "লে": 1128,
      "রাখ": 1129,
      "##er": 1130,
      "##্ভ": 1131,
      "##্যাল": 1132,
      "##ুদ্ধ": 1133,
      "চল": 1134,
      "##ল্প": 1135,
      "ভে": 1136,
      "বিষ": 1137,
      "##ধান": 1138,
      "##জে": 1139,
      "হচ্ছে": 1140,
      "ভার": 1141,
      "##েলা": 1142,
      "##োধ": 1143,
      "পারে": 1144,
      "চো": 1145,
      "পুর": 1146,
      "চলে": 1147,
      "আবার": 1148,
      "প্রথম": 1149,
      "সরকার": 1150,
      "২০": 1151,
      "মি": 1152,
      "পড়ে": 1153,
      "##ড়া": 1154,
      "কারণ": 1155,
      "##টু": 1156,
      "##ছিলেন": 1157,
      "##ানো": 1158,
      "মহ": 1159,
      "ঠিক": 1160,
      "জীব": 1161,
      "আই": 1162,
      "হলে": 1163,
      "বিভ": 1164,
      "কী": 1165,
      "লাগ": 1166,
      "##তার": 1167,
      "কর্ম": 1168,
      "বন্ধ": 1169,
      "তারা": 1170,
      "##ংশ": 1171,
      "দেখে": 1172,
      "##কাল": 1173,
      "ওই": 1174,
      "১৯": 1175,
      "তু": 1176,
      "##র্ণ": 1177,
      "##ুক্ত": 1178,
      "বুঝ": 1179,
      "আব": 1180,
      "বির": 1181,
      "প্রশ": 1182,
      "##ূল": 1183,
      "##াড়া": 1184,
      "##িপ": 1185,
      "##সা": 1186,
      "##েক": 1187,
      "তোমার": 1188,
      "দেখা": 1189,
      "হাত": 1190,
      "##ঁচ": 1191,
      "গত": 1192,
      "ঘট": 1193,
      "বার": 1194,
      "##ক্র": 1195,
      "##রণ": 1196,
      "হিস": 1197,
      "মতো": 1198,
      "##কাশ": 1199,
      "হতে": 1200,
      "##িকা": 1201,
      "ওর": 1202,
      "মন": 1203,
      "নিজের": 1204,
      "##ওয়": 1205,
      "কেউ": 1206,
      "##ঞ্চ": 1207,
      "##টির": 1208,
      "##চ্ছ": 1209,
      "##ড়িয়ে": 1210,
      "অপ": 1211,
      "##ষ্ঠ": 1212,
      "মার": 1213,
      "##বাদ": 1214,
      "##ন্ড": 1215,
      "##্বা": 1216,
      "যেন": 1217,
      "আশ": 1218,
      "##িকে": 1219,
      "##স্থা": 1220,
      "ভাব": 1221,
      "##ধার": 1222,
      "একটু": 1223,
      "##ঞ্জ": 1224,
      "##ধু": 1225,
      "##he": 1226,
      "আলো": 1227,
      "ধরে": 1228,
      "আগ": 1229,
      "##in": 1230,
      "পরে": 1231,
      "গেছে": 1232,
      "মেয়ে": 1233,
      "অনু": 1234,
      "##on": 1235,
      "মুখ": 1236,
      "দুই": 1237,
      "##কি": 1238,
      "ধর": 1239,
      "##োল": 1240,
      "##চিত": 1241,
      "##িকার": 1242,
      "##ৃষ্ট": 1243,
      "চাই": 1244,
      "লোক": 1245,
      "##ানি": 1246,
      "এল": 1247,
      "বছর": 1248,
      "##থায়": 1249,
      "পুল": 1250,
      "দিতে": 1251,
      "অভি": 1252,
      "পর্য": 1253,
      "##াশ": 1254,
      "শিক্ষ": 1255,
      "##ীদের": 1256,
      "##বাস": 1257,
      "আমাকে": 1258,
      "##ন্ট": 1259,
      "##ীত": 1260,
      "ফির": 1261,
      "##্লা": 1262,
      "##ন্দ্র": 1263,
      "##িন্ন": 1264,
      "তাহ": 1265,
      "অস": 1266,
      "হল": 1267,
      "##ামী": 1268,
      "লি": 1269,
      "##ুত": 1270,
      "হই": 1271,
      "##্বর": 1272,
      "##ালের": 1273,
      "##ারের": 1274,
      "পুলিশ": 1275,
      "পাশ": 1276,
      "তিন": 1277,
      "বেশি": 1278,
      "আদ": 1279,
      "##an": 1280,
      "অধ": 1281,
      "##র্ম": 1282,
      "সাহ": 1283,
      "এত": 1284,
      "নত": 1285,
      "##ুপ": 1286,
      "মত": 1287,
      "##য়েছে": 1288,
      "শুধু": 1289,
      "##েন্ট": 1290,
      "##ার্থ": 1291,
      "হলো": 1292,
      "মাস": 1293,
      "আন": 1294,
      "##িদ": 1295,
      "বের": 1296,
      "##বর": 1297,
      "যখন": 1298,
      "নতুন": 1299,
      "ইউ": 1300,
      "যাবে": 1301,
      "হাজ": 1302,
      "দাঁ": 1303,
      "টাকা": 1304,
      "ছি": 1305,
      "বিদ": 1306,
      "##সি": 1307,
      "##ক্তি": 1308,
      "ছেলে": 1309,
      "##ar": 1310,
      "##তেই": 1311,
      "##স্য": 1312,
      "একজন": 1313,
      "ভা": 1314,
      "চার": 1315,
      "স্থ": 1316,
      "##শ্চ": 1317,
      "##িউ": 1318,
      "এটা": 1319,
      "উত্ত": 1320,
      "##কম": 1321,
      "ক্র": 1322,
      "##লার": 1323,
      "ভারত": 1324,
      "##or": 1325,
      "বলল": 1326,
      "##ক্ষে": 1327,
      "চাল": 1328,
      "##ণ্ড": 1329,
      "বো": 1330,
      "##াকার": 1331,
      "##ণা": 1332,
      "করেছে": 1333,
      "##র্শ": 1334,
      "হিসে": 1335,
      "মাঝ": 1336,
      "রো": 1337,
      "আপনার": 1338,
      "তাকে": 1339,
      "কাল": 1340,
      "##য়েক": 1341,
      "আরও": 1342,
      "দেওয়া": 1343,
      "দ্ব": 1344,
      "আপনি": 1345,
      "বসে": 1346,
      "##ায়ের": 1347,
      "##য়ো": 1348,
      "দিল": 1349,
      "প্রায়": 1350,
      "##াট": 1351,
      "ভাই": 1352,
      "##পি": 1353,
      "সবাই": 1354,
      "##ুদ": 1355,
      "##ুক্তি": 1356,
      "বাস": 1357,
      "পর্যন্ত": 1358,
      "ছোট": 1359,
      "##তিক": 1360,
      "চোখ": 1361,
      "আহ": 1362,
      "গা": 1363,
      "##ুট": 1364,
      "হিসেবে": 1365,
      "স্ট": 1366,
      "##at": 1367,
      "##প্ত": 1368,
      "##ন্ন": 1369,
      "##জ্ঞ": 1370,
      "পাক": 1371,
      "কয়েক": 1372,
      "##ণের": 1373,
      "জাত": 1374,
      "করি": 1375,
      "##বো": 1376,
      "খে": 1377,
      "বর": 1378,
      "ব্যাপ": 1379,
      "পি": 1380,
      "লেখ": 1381,
      "দল": 1382,
      "ইস": 1383,
      "বস": 1384,
      "বলতে": 1385,
      "দেয়": 1386,
      "##দে": 1387,
      "কত": 1388,
      "দর": 1389,
      "##িস্ত": 1390,
      "হার": 1391,
      "##োষ": 1392,
      "##ব্য": 1393,
      "কখন": 1394,
      "সদ": 1395,
      "কল": 1396,
      "সার": 1397,
      "##াড়ি": 1398,
      "##ীল": 1399,
      "তৈ": 1400,
      "রয়েছে": 1401,
      "##ূপ": 1402,
      "করেছেন": 1403,
      "দুর": 1404,
      "##িতা": 1405,
      "হাতে": 1406,
      "পাল": 1407,
      "শহ": 1408,
      "করছে": 1409,
      "বাবা": 1410,
      "শ্র": 1411,
      "নার": 1412,
      "যেতে": 1413,
      "##জা": 1414,
      "প্রধান": 1415,
      "##es": 1416,
      "##ডি": 1417,
      "সামনে": 1418,
      "উঠে": 1419,
      "##শ্য": 1420,
      "##ছিলাম": 1421,
      "তারপর": 1422,
      "##ক্ষা": 1423,
      "এখানে": 1424,
      "##াস্ত": 1425,
      "##াতা": 1426,
      "সো": 1427,
      "সেটা": 1428,
      "##ুব": 1429,
      "ট্র": 1430,
      "বিভিন্ন": 1431,
      "##ূর্ণ": 1432,
      "##াধ": 1433,
      "বাড়ি": 1434,
      "ছবি": 1435,
      "হে": 1436,
      "##ত্রে": 1437,
      "ছিলেন": 1438,
      "##িনা": 1439,
      "হাজার": 1440,
      "সত্য": 1441,
      "এবার": 1442,
      "প্রা": 1443,
      "##en": 1444,
      "পারেন": 1445,
      "##্যাম": 1446,
      "দেখতে": 1447,
      "বিষয়": 1448,
      "মানুষের": 1449,
      "স্ক": 1450,
      "##টের": 1451,
      "##্যার": 1452,
      "##ষ্টা": 1453,
      "##িৎ": 1454,
      "তাহলে": 1455,
      "নির্বা": 1456,
      "১০": 1457,
      "বাই": 1458,
      "রহ": 1459,
      "সালে": 1460,
      "the": 1461,
      "হো": 1462,
      "##ষ্ট্র": 1463,
      "পাঠ": 1464,
      "##ীরা": 1465,
      "##বর্ত": 1466,
      "মৃত": 1467,
      "##ড়ি": 1468,
      "রেখে": 1469,
      "##টাই": 1470,
      "##্যের": 1471,
      "##েব": 1472,
      "মাম": 1473,
      "##ন্ম": 1474,
      "মূল": 1475,
      "##ীতি": 1476,
      "##চ্চ": 1477,
      "##সম": 1478,
      "##াও": 1479,
      "দেশের": 1480,
      "ছাড়া": 1481,
      "প্রকাশ": 1482,
      "উদ": 1483,
      "##al": 1484,
      "সেখানে": 1485,
      "##্রি": 1486,
      "##্যে": 1487,
      "##ভাব": 1488,
      "##নায়": 1489,
      "নিয়": 1490,
      "তাক": 1491,
      "উপর": 1492,
      "সম্পর্": 1493,
      "##ধারণ": 1494,
      "##োনা": 1495,
      "##সের": 1496,
      "সভ": 1497,
      "পেয়ে": 1498,
      "##বেশ": 1499,
      "##ুণ": 1500,
      "##্লাহ": 1501,
      "ডাক": 1502,
      "##েরে": 1503,
      "রাত": 1504,
      "বলা": 1505,
      "ভাবে": 1506,
      "##র্থ": 1507,
      "গ্রাম": 1508,
      "##বু": 1509,
      "পরিচ": 1510,
      "##ুদ্ধে": 1511,
      "গুল": 1512,
      "চেয়ে": 1513,
      "ইসলাম": 1514,
      "ক্ল": 1515,
      "অবস্থ": 1516,
      "প্রত": 1517,
      "##বিদ": 1518,
      "##ন্ত্রী": 1519,
      "অর্থ": 1520,
      "##্যান্ড": 1521,
      "সম্ভ": 1522,
      "##াবি": 1523,
      "যোগ": 1524,
      "##োপ": 1525,
      "##ক্ষণ": 1526,
      "অফ": 1527,
      "বললেন": 1528,
      "উদ্": 1529,
      "##ীগ": 1530,
      "##িয়ার": 1531,
      "##ন্দর": 1532,
      "##ত্ব": 1533,
      "##মিক": 1534,
      "##ুষ্ঠ": 1535,
      "##োঁ": 1536,
      "জীবন": 1537,
      "নাই": 1538,
      "##ালি": 1539,
      "##দিকে": 1540,
      "তুলে": 1541,
      "পাকিস্ত": 1542,
      "কু": 1543,
      "##গর": 1544,
      "##ীতে": 1545,
      "##্যাপ": 1546,
      "শর": 1547,
      "রাজন": 1548,
      "##্লে": 1549,
      "অংশ": 1550,
      "##ধা": 1551,
      "বৈ": 1552,
      "বহ": 1553,
      "শে": 1554,
      "##্বে": 1555,
      "##লায়": 1556,
      "ফিরে": 1557,
      "ঘুম": 1558,
      "করবে": 1559,
      "##লেই": 1560,
      "নাক": 1561,
      "চা": 1562,
      "নির্বাচ": 1563,
      "##ুজ": 1564,
      "##েরা": 1565,
      "বিশেষ": 1566,
      "##দেশ": 1567,
      "##ানোর": 1568,
      "খা": 1569,
      "যাচ্ছে": 1570,
      "##লি": 1571,
      "##মি": 1572,
      "চেষ্টা": 1573,
      "##কর": 1574,
      "##াবার": 1575,
      "মাঝে": 1576,
      "পো": 1577,
      "আত": 1578,
      "##লেও": 1579,
      "পাওয়া": 1580,
      "ধার": 1581,
      "##ৃষ্টি": 1582,
      "স্প": 1583,
      "সক": 1584,
      "উৎ": 1585,
      "##িন্দ": 1586,
      "পৃ": 1587,
      "মাধ্য": 1588,
      "সর্ব": 1589,
      "ব্যবহার": 1590,
      "আসে": 1591,
      "ছাত্র": 1592,
      "##ৃতি": 1593,
      "টি": 1594,
      "##জার": 1595,
      "##ায়গ": 1596,
      "##েলার": 1597,
      "২০১": 1598,
      "মিল": 1599,
      "##িনে": 1600,
      "##বল": 1601,
      "পৌ": 1602,
      "বৃ": 1603,
      "##it": 1604,
      "হয়েছিল": 1605,
      "##জি": 1606,
      "##াৎ": 1607,
      "ফোন": 1608,
      "হা": 1609,
      "##ুঁ": 1610,
      "এম": 1611,
      "জায়গ": 1612,
      "এসব": 1613,
      "তে": 1614,
      "ওপর": 1615,
      "জানা": 1616,
      "নিজে": 1617,
      "##িত্ব": 1618,
      "##ঠে": 1619,
      "দায়": 1620,
      "তৈরি": 1621,
      "অত": 1622,
      "##সার": 1623,
      "##ালা": 1624,
      "##য়োজন": 1625,
      "উল": 1626,
      "বিপ": 1627,
      "##ou": 1628,
      "দেন": 1629,
      "##শন": 1630,
      "বাংলাদেশের": 1631,
      "টা": 1632,
      "তাঁদের": 1633,
      "##িজ্ঞ": 1634,
      "##ুকে": 1635,
      "##om": 1636,
      "বই": 1637,
      "প্রক": 1638,
      "দী": 1639,
      "লক্ষ": 1640,
      "শুন": 1641,
      "##িত্র": 1642,
      "##ed": 1643,
      "প্রশ্ন": 1644,
      "##দী": 1645,
      "##ভার": 1646,
      "এগ": 1647,
      "##is": 1648,
      "##বী": 1649,
      "উত্তর": 1650,
      "##িস্ট": 1651,
      "বয়": 1652,
      "##দার": 1653,
      "##পে": 1654,
      "মৃত্য": 1655,
      "##স্ক": 1656,
      "##াইল": 1657,
      "যত": 1658,
      "স্ত": 1659,
      "অভিযোগ": 1660,
      "##ুগ": 1661,
      "সূ": 1662,
      "##াইন": 1663,
      "##গ্রহ": 1664,
      "##ুলে": 1665,
      "আট": 1666,
      "ম্যা": 1667,
      "ভূ": 1668,
      "##্ধ": 1669,
      "প্রতিষ্ঠ": 1670,
      "রাস্ত": 1671,
      "##চনা": 1672,
      "বিরুদ্ধে": 1673,
      "কলে": 1674,
      "অথ": 1675,
      "##গত": 1676,
      "নিশ্চ": 1677,
      "একে": 1678,
      "অনুষ্ঠ": 1679,
      "##াকায়": 1680,
      "জল": 1681,
      "তুই": 1682,
      "জে": 1683,
      "##বাব": 1684,
      "বাহ": 1685,
      "গণ": 1686,
      "পূর": 1687,
      "ঘরে": 1688,
      "##nd": 1689,
      "কাঁ": 1690,
      "খবর": 1691,
      "ব্র": 1692,
      "##ষ্": 1693,
      "ক্ষে": 1694,
      "ছে": 1695,
      "##শি": 1696,
      "তুল": 1697,
      "শুনে": 1698,
      "##খান": 1699,
      "##ব্দ": 1700,
      "##িনী": 1701,
      "হয়নি": 1702,
      "জাম": 1703,
      "##ৈতিক": 1704,
      "গল্প": 1705,
      "পদ": 1706,
      "একই": 1707,
      "নাকি": 1708,
      "অবশ্য": 1709,
      "জানিয়ে": 1710,
      "নিতে": 1711,
      "ভাষ": 1712,
      "ফেলে": 1713,
      "ঘটনা": 1714,
      "কারণে": 1715,
      "##য়ন": 1716,
      "সম্ম": 1717,
      "ব্যবস্থা": 1718,
      "মুক্তি": 1719,
      "কব": 1720,
      "পরিবার": 1721,
      "শিশ": 1722,
      "গেলে": 1723,
      "পরী": 1724,
      "ভালোবাস": 1725,
      "##ায়ী": 1726,
      "সদস্য": 1727,
      "সাধারণ": 1728,
      "তথ": 1729,
      "হওয়ার": 1730,
      "##চ্ছা": 1731,
      "ওকে": 1732,
      "##ন্স": 1733,
      "##বিদ্যাল": 1734,
      "বাঁ": 1735,
      "মাল": 1736,
      "অফিস": 1737,
      "উপজ": 1738,
      "##াসের": 1739,
      "পাঁচ": 1740,
      "আপন": 1741,
      "হত": 1742,
      "ইতি": 1743,
      "মাধ্যমে": 1744,
      "সাং": 1745,
      "ফেল": 1746,
      "অন্ত": 1747,
      "স্থান": 1748,
      "টে": 1749,
      "হঠ": 1750,
      "বিক": 1751,
      "ঘুর": 1752,
      "জাতীয়": 1753,
      "কেমন": 1754,
      "গান": 1755,
      "##ঙ্ক": 1756,
      "বান": 1757,
      "পান": 1758,
      "পৃথ": 1759,
      "বাড়িতে": 1760,
      "হয়তো": 1761,
      "##সল": 1762,
      "মুখে": 1763,
      "যান": 1764,
      "##ing": 1765,
      "ভয়": 1766,
      "##শা": 1767,
      "মাত্র": 1768,
      "আরো": 1769,
      "##্যাক": 1770,
      "ভুল": 1771,
      "দেশে": 1772,
      "##ic": 1773,
      "ঢাকা": 1774,
      "##মন্ত্রী": 1775,
      "##০০": 1776,
      "##ীরে": 1777,
      "##েস": 1778,
      "থাকা": 1779,
      "সালের": 1780,
      "দলের": 1781,
      "যেমন": 1782,
      "খেল": 1783,
      "ধর্ম": 1784,
      "ব্ল": 1785,
      "বুঝতে": 1786,
      "পারি": 1787,
      "##এন": 1788,
      "##তাম": 1789,
      "থাকতে": 1790,
      "বিশ্ববিদ্যাল": 1791,
      "যাই": 1792,
      "হ্যা": 1793,
      "আত্ম": 1794,
      "আইন": 1795,
      "তাঁরা": 1796,
      "##ভা": 1797,
      "থেকেই": 1798,
      "স্ম": 1799,
      "##ীকে": 1800,
      "##ুখ": 1801,
      "##দা": 1802,
      "খান": 1803,
      "##ণে": 1804,
      "তোর": 1805,
      "পথ": 1806,
      "##ুটি": 1807,
      "ব্যক্তি": 1808,
      "##টো": 1809,
      "সম্ভব": 1810,
      "বাইরে": 1811,
      "##াসে": 1812,
      "##রম": 1813,
      "রহমান": 1814,
      "দাঁড়িয়ে": 1815,
      "##as": 1816,
      "মানে": 1817,
      "##তম": 1818,
      "##কর্ত": 1819,
      "##বেদ": 1820,
      "হঠাৎ": 1821,
      "##গ্রাম": 1822,
      "জন্ম": 1823,
      "কোনও": 1824,
      "of": 1825,
      "গুরু": 1826,
      "##খ্যা": 1827,
      "আয়": 1828,
      "গতকাল": 1829,
      "##াদা": 1830,
      "ডি": 1831,
      "বিয়ে": 1832,
      "যুক্ত": 1833,
      "ভিত": 1834,
      "##িখ": 1835,
      "##িল্প": 1836,
      "##জনের": 1837,
      "জানান": 1838,
      "সুন্দর": 1839,
      "নেত": 1840,
      "মাথা": 1841,
      "খুঁ": 1842,
      "যার": 1843,
      "চি": 1844,
      "একবার": 1845,
      "চিন্ত": 1846,
      "কখনো": 1847,
      "যারা": 1848,
      "কোথায়": 1849,
      "##োর্ট": 1850,
      "দূ": 1851,
      "স্বপ": 1852,
      "তর": 1853,
      "ছেড়ে": 1854,
      "কর্ত": 1855,
      "##হে": 1856,
      "ওদের": 1857,
      "রান": 1858,
      "তথ্য": 1859,
      "শব্দ": 1860,
      "##সেন": 1861,
      "জানতে": 1862,
      "তাঁকে": 1863,
      "চোখে": 1864,
      "##দ্র": 1865,
      "দশ": 1866,
      "##বাহ": 1867,
      "জানি": 1868,
      "##ান্য": 1869,
      "##le": 1870,
      "ভি": 1871,
      "কাম": 1872,
      "এটি": 1873,
      "চিক": 1874,
      "ক্ষেত্রে": 1875,
      "বিষয়ে": 1876,
      "তাকিয়ে": 1877,
      "##তন": 1878,
      "সৌ": 1879,
      "এস": 1880,
      "ঘোষ": 1881,
      "##কেই": 1882,
      "##এস": 1883,
      "আকাশ": 1884,
      "দাবি": 1885,
      "নামে": 1886,
      "##কালে": 1887,
      "##াক্ষ": 1888,
      "হাসপ": 1889,
      "রাতে": 1890,
      "বিশ্বাস": 1891,
      "পাশে": 1892,
      "##হত": 1893,
      "প্রস্ত": 1894,
      "##ফল": 1895,
      "##ট্ট": 1896,
      "##জ্জ": 1897,
      "ভেত": 1898,
      "যাওয়া": 1899,
      "লেখা": 1900,
      "বন্ধু": 1901,
      "বিচার": 1902,
      "হন": 1903,
      "##হা": 1904,
      "স্": 1905,
      "বোঝ": 1906,
      "ভাগ": 1907,
      "কর্মকর্ত": 1908,
      "##ion": 1909,
      "পুরো": 1910,
      "##মাণ": 1911,
      "ফলে": 1912,
      "##র্ড": 1913,
      "##ালো": 1914,
      "##িটি": 1915,
      "##সহ": 1916,
      "পৃথিব": 1917,
      "প্রেম": 1918,
      "সিদ্ধ": 1919,
      "বছরের": 1920,
      "কষ্ট": 1921,
      "##re": 1922,
      "শেখ": 1923,
      "বর্ত": 1924,
      "সাই": 1925,
      "ক্ষম": 1926,
      "খার": 1927,
      "থাকবে": 1928,
      "##াধীন": 1929,
      "লীগ": 1930,
      "সন্ত": 1931,
      "পায়": 1932,
      "ফের": 1933,
      "তোমাকে": 1934,
      "##ুলের": 1935,
      "ধরনের": 1936,
      "নম": 1937,
      "##জাত": 1938,
      "রাষ্ট্র": 1939,
      "ওরা": 1940,
      "যাওয়ার": 1941,
      "কলেজ": 1942,
      "কাউ": 1943,
      "এগিয়ে": 1944,
      "সমাজ": 1945,
      "কিং": 1946,
      "কেন্দ্র": 1947,
      "পরিচাল": 1948,
      "দিয়েছে": 1949,
      "বাংলা": 1950,
      "##্বাস": 1951,
      "##স্যা": 1952,
      "##ম্প": 1953,
      "ভর": 1954,
      "##তায়": 1955,
      "২০০": 1956,
      "সুযোগ": 1957,
      "কাছ": 1958,
      "জিজ্ঞ": 1959,
      "##চ্ছেন": 1960,
      "উন্ন": 1961,
      "##খ্য": 1962,
      "##বন্ধ": 1963,
      "সময়ে": 1964,
      "স্বাধীন": 1965,
      "ব্যাপার": 1966,
      "##েশন": 1967,
      "গ্রহ": 1968,
      "##মের": 1969,
      "##িট": 1970,
      "রকম": 1971,
      "##কারী": 1972,
      "এরপর": 1973,
      "ফে": 1974,
      "জো": 1975,
      "কৃ": 1976,
      "মুহ": 1977,
      "করলে": 1978,
      "যুদ্ধ": 1979,
      "সত্যি": 1980,
      "একা": 1981,
      "ছাড়": 1982,
      "বিল": 1983,
      "##ভূ": 1984,
      "ইন": 1985,
      "বদ": 1986,
      "##সর": 1987,
      "বললো": 1988,
      "##ভি": 1989,
      "সরকারের": 1990,
      "উই": 1991,
      "প্রয়োজন": 1992,
      "আওয়": 1993,
      "##ক্স": 1994,
      "চিকিৎ": 1995,
      "পরিস": 1996,
      "খারাপ": 1997,
      "##্রী": 1998,
      "এসেছে": 1999,
      "##চ্ছি": 2000,
      "##দান": 2001,
      "হাম": 2002,
      "বাজ": 2003,
      "##ad": 2004,
      "চৌ": 2005,
      "কান": 2006,
      "##ধুর": 2007,
      "##ায": 2008,
      "জেলা": 2009,
      "যাব": 2010,
      "১২": 2011,
      "##ালী": 2012,
      "জয়": 2013,
      "##তের": 2014,
      "সুর": 2015,
      "আরেক": 2016,
      "to": 2017,
      "নির্ম": 2018,
      "সবার": 2019,
      "ইউনি": 2020,
      "দেব": 2021,
      "করিয়া": 2022,
      "##চেয়ে": 2023,
      "##্বল": 2024,
      "আওয়ামী": 2025,
      "রূপ": 2026,
      "সমস্যা": 2027,
      "লিখ": 2028,
      "##ুরি": 2029,
      "পূর্ব": 2030,
      "জু": 2031,
      "দক্ষ": 2032,
      "হাঁ": 2033,
      "##েলের": 2034,
      "##পার": 2035,
      "তাতে": 2036,
      "সাল": 2037,
      "আক্র": 2038,
      "দেখি": 2039,
      "ঘর": 2040,
      "##মার": 2041,
      "প্রে": 2042,
      "চাক": 2043,
      "হোক": 2044,
      "হলেও": 2045,
      "##র্ঘ": 2046,
      "##ক্ট": 2047,
      "বিজ্ঞ": 2048,
      "এতে": 2049,
      "দাঁড়": 2050,
      "##il": 2051,
      "চাপ": 2052,
      "সবচেয়ে": 2053,
      "মুসল": 2054,
      "##িরা": 2055,
      "সংগ": 2056,
      "##িফ": 2057,
      "সকল": 2058,
      "##েম্বর": 2059,
      "পৌঁ": 2060,
      "চায়": 2061,
      "ইং": 2062,
      "##ুয়ার": 2063,
      "সম্পর্কে": 2064,
      "##নিক": 2065,
      "আসলে": 2066,
      "নিজেকে": 2067,
      "কিছুই": 2068,
      "##ot": 2069,
      "##ছিলো": 2070,
      "অম": 2071,
      "ভেবে": 2072,
      "##যো": 2073,
      "করছেন": 2074,
      "##িলা": 2075,
      "in": 2076,
      "রক্ত": 2077,
      "##্না": 2078,
      "করুন": 2079,
      "শিল্প": 2080,
      "সকাল": 2081,
      "নির্": 2082,
      "তবু": 2083,
      "১১": 2084,
      "বেরিয়ে": 2085,
      "##াদক": 2086,
      "লাল": 2087,
      "##াউ": 2088,
      "শাহ": 2089,
      "আল্লাহ": 2090,
      "করল": 2091,
      "বক্ত": 2092,
      "পাই": 2093,
      "১৫": 2094,
      "বাড়ির": 2095,
      "দেয়া": 2096,
      "সিদ্ধান্ত": 2097,
      "একদিন": 2098,
      "হওয়া": 2099,
      "আন্দ": 2100,
      "তাল": 2101,
      "সভাপ": 2102,
      "সী": 2103,
      "করবেন": 2104,
      "##am": 2105,
      "শাস": 2106,
      "গাড়ি": 2107,
      "##নাকে": 2108,
      "ছিলো": 2109,
      "গ্রে": 2110,
      "নির্বাচন": 2111,
      "পত্র": 2112,
      "আদাল": 2113,
      "##ভে": 2114,
      "দ্র": 2115,
      "খো": 2116,
      "##পন": 2117,
      "##স্ব": 2118,
      "দরকার": 2119,
      "##জর": 2120,
      "##িয়ান": 2121,
      "রাখা": 2122,
      "কার্য": 2123,
      "নানা": 2124,
      "নির্দ": 2125,
      "##রাধ": 2126,
      "এখনো": 2127,
      "দ্বিত": 2128,
      "সাত": 2129,
      "ফুট": 2130,
      "হোসেন": 2131,
      "পু": 2132,
      "দেওয়ার": 2133,
      "##ুকু": 2134,
      "মর": 2135,
      "কিংবা": 2136,
      "##াদি": 2137,
      "রাজনৈতিক": 2138,
      "##্যাস": 2139,
      "দায়িত্ব": 2140,
      "##ানার": 2141,
      "শরীর": 2142,
      "প্রাণ": 2143,
      "কথ": 2144,
      "##বান": 2145,
      "প্ল": 2146,
      "ওয়": 2147,
      "কোটি": 2148,
      "প্রত্য": 2149,
      "বলেছেন": 2150,
      "##ংস": 2151,
      "মায়ের": 2152,
      "সির": 2153,
      "হ্যাঁ": 2154,
      "সারা": 2155,
      "দূর": 2156,
      "ভারতের": 2157,
      "##াস্থ": 2158,
      "দুটি": 2159,
      "and": 2160,
      "লাভ": 2161,
      "প্রচ": 2162,
      "ফাঁ": 2163,
      "##পা": 2164,
      "##্রম": 2165,
      "দ্বিতীয়": 2166,
      "##সং": 2167,
      "##গুলোর": 2168,
      "##ারি": 2169,
      "১৮": 2170,
      "##াে": 2171,
      "পথে": 2172,
      "অপে": 2173,
      "##স্প": 2174,
      "##পূর্ণ": 2175,
      "##স্থিত": 2176,
      "##টাকে": 2177,
      "চেয়ার": 2178,
      "কাজে": 2179,
      "দিনের": 2180,
      "##কদের": 2181,
      "##োয়া": 2182,
      "মাথায়": 2183,
      "##ন্ত্রণ": 2184,
      "নারী": 2185,
      "ক্রিকে": 2186,
      "##াফ": 2187,
      "লাগে": 2188,
      "আসতে": 2189,
      "মোহ": 2190,
      "নেতা": 2191,
      "যেখানে": 2192,
      "মৌ": 2193,
      "সেদিন": 2194,
      "##মাত্র": 2195,
      "গু": 2196,
      "ভোট": 2197,
      "বিএন": 2198,
      "ব্যাপারে": 2199,
      "ঘটে": 2200,
      "##ন্দে": 2201,
      "এলাকায়": 2202,
      "##াণ": 2203,
      "##ষণ": 2204,
      "আগেই": 2205,
      "##হি": 2206,
      "ওঠে": 2207,
      "##শে": 2208,
      "##ীক": 2209,
      "দীর্ঘ": 2210,
      "##তু": 2211,
      "##el": 2212,
      "গুরুত্ব": 2213,
      "##ায়ক": 2214,
      "##টিতে": 2215,
      "কন": 2216,
      "সাজ": 2217,
      "দোক": 2218,
      "নেওয়া": 2219,
      "করলেন": 2220,
      "পরিবর্ত": 2221,
      "##যুক্ত": 2222,
      "##আই": 2223,
      "কাট": 2224,
      "##ন্টার": 2225,
      "##াম্ম": 2226,
      "লাই": 2227,
      "অতি": 2228,
      "বিভাগ": 2229,
      "##র্ক": 2230,
      "##হাস": 2231,
      "##ান্ড": 2232,
      "জিন": 2233,
      "অবস্থা": 2234,
      "শ্রে": 2235,
      "দিয়েছেন": 2236,
      "##জনে": 2237,
      "আন্দোল": 2238,
      "##ান্তি": 2239,
      "##ৃদ": 2240,
      "খেয়ে": 2241,
      "নী": 2242,
      "মোট": 2243,
      "##িকের": 2244,
      "গাছ": 2245,
      "##ছো": 2246,
      "রোগ": 2247,
      "সাহায": 2248,
      "##পের": 2249,
      "##ধে": 2250,
      "##ঙ্গল": 2251,
      "##াপ্ত": 2252,
      "অপর": 2253,
      "##দন্ত": 2254,
      "নিরাপ": 2255,
      "##িরে": 2256,
      "দুঃ": 2257,
      "##দর্শ": 2258,
      "শত": 2259,
      "প্রার্থ": 2260,
      "লাখ": 2261,
      "বললাম": 2262,
      "দাম": 2263,
      "##ানী": 2264,
      "নির্দেশ": 2265,
      "নিজেদের": 2266,
      "উদ্দেশ": 2267,
      "##স্কার": 2268,
      "##ay": 2269,
      "ওয়ে": 2270,
      "স্থানীয়": 2271,
      "##ূর্ত": 2272,
      "বেঁ": 2273,
      "আছেন": 2274,
      "##ol": 2275,
      "শুক": 2276,
      "পশ্চ": 2277,
      "##ঠন": 2278,
      "##খা": 2279,
      "নীল": 2280,
      "##পক্ষ": 2281,
      "কলক": 2282,
      "পুরুষ": 2283,
      "শেষে": 2284,
      "রুম": 2285,
      "##বির": 2286,
      "সংবাদ": 2287,
      "##রাষ্ট্র": 2288,
      "##et": 2289,
      "স্বপ্ন": 2290,
      "##দুল": 2291,
      "সরকারি": 2292,
      "শক্তি": 2293,
      "মেঘ": 2294,
      "কোথা": 2295,
      "অস্ত": 2296,
      "##চিত্র": 2297,
      "##ছনে": 2298,
      "মনের": 2299,
      "সংখ্যা": 2300,
      "পারবে": 2301,
      "শিশু": 2302,
      "##হীন": 2303,
      "মৃত্যু": 2304,
      "এভাবে": 2305,
      "##চের": 2306,
      "রাখতে": 2307,
      "আন্ত": 2308,
      "##ংক": 2309,
      "করেছি": 2310,
      "##ুদ্র": 2311,
      "##পত্র": 2312,
      "খুলে": 2313,
      "জীবনের": 2314,
      "##ধি": 2315,
      "নিউ": 2316,
      "নেমে": 2317,
      "##ুটে": 2318,
      "##ড়াই": 2319,
      "##তির": 2320,
      "আগের": 2321,
      "চলছে": 2322,
      "চুপ": 2323,
      "মিনি": 2324,
      "##কেল": 2325,
      "গুলো": 2326,
      "রায়": 2327,
      "মারা": 2328,
      "##টায়": 2329,
      "চৌধুর": 2330,
      "মিশ": 2331,
      "চট্ট": 2332,
      "জানে": 2333,
      "##বেদন": 2334,
      "গেলো": 2335,
      "##চ্ছিল": 2336,
      "##st": 2337,
      "##িনীর": 2338,
      "##পাশ": 2339,
      "উল্লে": 2340,
      "চিন্তা": 2341,
      "##ম্যান": 2342,
      "##াস্ট": 2343,
      "th": 2344,
      "##্থিত": 2345,
      "পানি": 2346,
      "##ুই": 2347,
      "বাস্ত": 2348,
      "ডে": 2349,
      "আসছে": 2350,
      "##গঞ্জ": 2351,
      "##েনি": 2352,
      "উচ্চ": 2353,
      "নিল": 2354,
      "বাদ": 2355,
      "##বর্তী": 2356,
      "বলি": 2357,
      "##টুকু": 2358,
      "বন্দ": 2359,
      "##িণ": 2360,
      "প্রশাস": 2361,
      "##ওয়ায়": 2362,
      "উপস্থিত": 2363,
      "বাবার": 2364,
      "##াতের": 2365,
      "গোল": 2366,
      "বুক": 2367,
      "বিদেশ": 2368,
      "##োভ": 2369,
      "আফ": 2370,
      "##নী": 2371,
      "পরিস্থিত": 2372,
      "সেন": 2373,
      "বাত": 2374,
      "আশা": 2375,
      "পশ্চিম": 2376,
      "সম্পর্ক": 2377,
      "মেয়ের": 2378,
      "গর": 2379,
      "অন্ধ": 2380,
      "##কেট": 2381,
      "সকালে": 2382,
      "##ঠি": 2383,
      "হইয়া": 2384,
      "##িত্য": 2385,
      "লিখে": 2386,
      "##ঙে": 2387,
      "নিয়ম": 2388,
      "সমর্থ": 2389,
      "দুটো": 2390,
      "জ্ব": 2391,
      "##পির": 2392,
      "যাত্র": 2393,
      "বয়স": 2394,
      "জম": 2395,
      "থাকলে": 2396,
      "করছি": 2397,
      "##ম্ভ": 2398,
      "করলাম": 2399,
      "স্যার": 2400,
      "মানব": 2401,
      "গ্রামের": 2402,
      "সভাপতি": 2403,
      "পরিবেশ": 2404,
      "##্তে": 2405,
      "##্যাট": 2406,
      "মাহ": 2407,
      "##চি": 2408,
      "বোধ": 2409,
      "##য়াল": 2410,
      "সাহেব": 2411,
      "প্রিয়": 2412,
      "##ডিও": 2413,
      "১৯৭": 2414,
      "৩০": 2415,
      "হারিয়ে": 2416,
      "হাসি": 2417,
      "সমস্ত": 2418,
      "##েলায়": 2419,
      "সংস": 2420,
      "সম্পাদক": 2421,
      "কেটে": 2422,
      "গ্রহণ": 2423,
      "খাবার": 2424,
      "জাহ": 2425,
      "##্যাম্প": 2426,
      "কর্তৃ": 2427,
      "##ent": 2428,
      "##িগ": 2429,
      "চোখের": 2430,
      "পছ": 2431,
      "##রিক": 2432,
      "কঠ": 2433,
      "পাকিস্তান": 2434,
      "তেমন": 2435,
      "থাকার": 2436,
      "কথায়": 2437,
      "সাব": 2438,
      "আধ": 2439,
      "দার": 2440,
      "গভ": 2441,
      "একদ": 2442,
      "জন্যে": 2443,
      "কর্মকর্তা": 2444,
      "ধীরে": 2445,
      "দুপুর": 2446,
      "পক্ষ": 2447,
      "সৈ": 2448,
      "হুম": 2449,
      "##ডে": 2450,
      "কেবল": 2451,
      "##ow": 2452,
      "শতা": 2453,
      "##রী": 2454,
      "##সূ": 2455,
      "ডিস": 2456,
      "জায়গা": 2457,
      "চর": 2458,
      "শুভ": 2459,
      "##ম্ব": 2460,
      "##োহ": 2461,
      "##নাথ": 2462,
      "বাকি": 2463,
      "ফুল": 2464,
      "##বন": 2465,
      "সপ্ত": 2466,
      "খেলা": 2467,
      "সম্প্র": 2468,
      "আঁ": 2469,
      "বাল": 2470,
      "যদিও": 2471,
      "বিরোধ": 2472,
      "##গা": 2473,
      "দেবে": 2474,
      "ঘুরে": 2475,
      "সহজ": 2476,
      "##ac": 2477,
      "পেল": 2478,
      "আসা": 2479,
      "##রত": 2480,
      "অবাক": 2481,
      "##ুতি": 2482,
      "পক্ষে": 2483,
      "ঘোষণা": 2484,
      "##ছাড়া": 2485,
      "##টিং": 2486,
      "##েনা": 2487,
      "##্যাগ": 2488,
      "অথবা": 2489,
      "শিক্ষা": 2490,
      "##ড়ার": 2491,
      "চান": 2492,
      "এখনও": 2493,
      "করেছিলেন": 2494,
      "নেয়": 2495,
      "##ানায়": 2496,
      "দূরে": 2497,
      "সৃষ্টি": 2498,
      "১৪": 2499,
      "তৃ": 2500,
      "পুলিশের": 2501,
      "##ীকার": 2502,
      "বহু": 2503,
      "দ্রুত": 2504,
      "উদ্য": 2505,
      "অথচ": 2506,
      "অন্যান্য": 2507,
      "জনগ": 2508,
      "মামলা": 2509,
      "বাঁচ": 2510,
      "জায়গায়": 2511,
      "আসবে": 2512,
      "বাঙ": 2513,
      "বাব": 2514,
      "গবে": 2515,
      "হতো": 2516,
      "খেতে": 2517,
      "বিষয়টি": 2518,
      "উদ্ধ": 2519,
      "বক্তব্য": 2520,
      "বেড়ে": 2521,
      "আপনাকে": 2522,
      "##্টা": 2523,
      "করলো": 2524,
      "##মুখ": 2525,
      "মার্ক": 2526,
      "##বেক": 2527,
      "উল্লেখ": 2528,
      "মাই": 2529,
      "##ধ্যায়": 2530,
      "বৃদ্ধ": 2531,
      "##িভ": 2532,
      "অধিকার": 2533,
      "হেসে": 2534,
      "##শীল": 2535,
      "যুব": 2536,
      "চট্টগ্রাম": 2537,
      "জীবনে": 2538,
      "নিশ্চিত": 2539,
      "##ec": 2540,
      "##ur": 2541,
      "##িনের": 2542,
      "##িতার": 2543,
      "ওঠ": 2544,
      "নম্বর": 2545,
      "গাড়": 2546,
      "##যায়ী": 2547,
      "আছি": 2548,
      "##ায়ে": 2549,
      "কুম": 2550,
      "দিক": 2551,
      "রাগ": 2552,
      "হাই": 2553,
      "সন্ধ": 2554,
      "আমের": 2555,
      "দিনে": 2556,
      "আচ্ছা": 2557,
      "অপরাধ": 2558,
      "##াযোগ": 2559,
      "##সময়": 2560,
      "খুঁজে": 2561,
      "হত্যা": 2562,
      "পেরে": 2563,
      "এতো": 2564,
      "পরীক্ষা": 2565,
      "উনি": 2566,
      "ব্লগ": 2567,
      "ইচ্ছে": 2568,
      "বিন": 2569,
      "পর্ব": 2570,
      "দুর্": 2571,
      "ভারতীয়": 2572,
      "##োনো": 2573,
      "##ল্পনা": 2574,
      "উচিত": 2575,
      "##াশি": 2576,
      "##শেষ": 2577,
      "পূ": 2578,
      "স্কুল": 2579,
      "কাপ": 2580,
      "##ভাবিক": 2581,
      "ড্র": 2582,
      "ফ্র": 2583,
      "বঙ্গ": 2584,
      "ডাক্ত": 2585,
      "##ir": 2586,
      "হাল": 2587,
      "ধরা": 2588,
      "স্বাস্থ": 2589,
      "##ডেন্ট": 2590,
      "আনন্দ": 2591,
      "সুবি": 2592,
      "তদন্ত": 2593,
      "এন": 2594,
      "নিষ": 2595,
      "কৃষ": 2596,
      "কোথাও": 2597,
      "ওয়ার": 2598,
      "জিনিস": 2599,
      "বৃহ": 2600,
      "যাতে": 2601,
      "পরিবারের": 2602,
      "##বারে": 2603,
      "প্রথমে": 2604,
      "নাট": 2605,
      "বর্ণ": 2606,
      "জ্ঞ": 2607,
      "##গুলি": 2608,
      "অনুম": 2609,
      "##বিষ": 2610,
      "সাক্ষ": 2611,
      "অবস্থায়": 2612,
      "আলোচনা": 2613,
      "পাশাপ": 2614,
      "২৫": 2615,
      "অভিন": 2616,
      "বলেই": 2617,
      "দিলেন": 2618,
      "স্ত্রী": 2619,
      "পাশাপাশি": 2620,
      "##ামা": 2621,
      "১৬": 2622,
      "কিছুটা": 2623,
      "পরিষ": 2624,
      "শিক্ষক": 2625,
      "ফার": 2626,
      "গড়ে": 2627,
      "পড়তে": 2628,
      "যৌ": 2629,
      "বন": 2630,
      "সড়": 2631,
      "করেছিল": 2632,
      "##জিব": 2633,
      "আলী": 2634,
      "করেই": 2635,
      "সন্তান": 2636,
      "সাহায্য": 2637,
      "মুক্ত": 2638,
      "সুখ": 2639,
      "দৃ": 2640,
      "এনে": 2641,
      "১৩": 2642,
      "শিক্ষার্থ": 2643,
      "##োনে": 2644,
      "অশ": 2645,
      "কৌ": 2646,
      "##ষ্কার": 2647,
      "কমিশ": 2648,
      "আগামী": 2649,
      "চাঁ": 2650,
      "রু": 2651,
      "##ঘাত": 2652,
      "নামের": 2653,
      "##্নে": 2654,
      "বাস্তব": 2655,
      "##জের": 2656,
      "খোঁ": 2657,
      "জর": 2658,
      "করিতে": 2659,
      "কাজের": 2660,
      "যোগাযোগ": 2661,
      "লীগের": 2662,
      "##দ্দ": 2663,
      "পরিচয়": 2664,
      "ছয়": 2665,
      "ঘরের": 2666,
      "করব": 2667,
      "বোন": 2668,
      "##ak": 2669,
      "ফল": 2670,
      "দক্ষিণ": 2671,
      "##াতালে": 2672,
      "ভাঙ": 2673,
      "পাত": 2674,
      "পরীক্ষ": 2675,
      "##ট্র": 2676,
      "##সিক": 2677,
      "##বস": 2678,
      "##তী": 2679,
      "##id": 2680,
      "অনি": 2681,
      "বাচ্চ": 2682,
      "##ার্ট": 2683,
      "##ফে": 2684,
      "##হের": 2685,
      "লক্ষ্য": 2686,
      "শতাংশ": 2687,
      "টাই": 2688,
      "##মানে": 2689,
      "স্বাস্থ্য": 2690,
      "তত": 2691,
      "ভেঙে": 2692,
      "পরিক": 2693,
      "এলো": 2694,
      "##তর": 2695,
      "প্রধানমন্ত্রী": 2696,
      "##ুয়ারি": 2697,
      "সন্": 2698,
      "##ছিস": 2699,
      "নব": 2700,
      "দুজন": 2701,
      "নিক": 2702,
      "খর": 2703,
      "##্নের": 2704,
      "মিথ": 2705,
      "শিব": 2706,
      "##এম": 2707,
      "সূত্র": 2708,
      "##ut": 2709,
      "অনুর": 2710,
      "সংশ": 2711,
      "বাংলাদেশে": 2712,
      "চৌধুরী": 2713,
      "ভালবাস": 2714,
      "##াসা": 2715,
      "নদ": 2716,
      "হাসপাতালে": 2717,
      "##শোর": 2718,
      "##ামে": 2719,
      "##াহী": 2720,
      "আন্তর্": 2721,
      "##োনার": 2722,
      "##জাতিক": 2723,
      "##টিকে": 2724,
      "দের": 2725,
      "টেক": 2726,
      "সফ": 2727,
      "অনুযায়ী": 2728,
      "অবস্থান": 2729,
      "পার্ট": 2730,
      "ক্ষতি": 2731,
      "থাকেন": 2732,
      "পুন": 2733,
      "##াদার": 2734,
      "##ায়া": 2735,
      "খুবই": 2736,
      "মোব": 2737,
      "বর্তমান": 2738,
      "হক": 2739,
      "##বহ": 2740,
      "জোর": 2741,
      "##াম্মদ": 2742,
      "পরিচিত": 2743,
      "মার্চ": 2744,
      "বিদ্য": 2745,
      "আসার": 2746,
      "মুহূর্ত": 2747,
      "##লী": 2748,
      "অজ": 2749,
      "আলাদ": 2750,
      "বাসায়": 2751,
      "##িসি": 2752,
      "##ন্তব্য": 2753,
      "হৃদ": 2754,
      "##োদ": 2755,
      "পারবেন": 2756,
      "যুগ": 2757,
      "##খি": 2758,
      "আক": 2759,
      "আন্তর্জাতিক": 2760,
      "##ামের": 2761,
      "পোস্ট": 2762,
      "ব্যবস": 2763,
      "পেতে": 2764,
      "ঢুক": 2765,
      "তোমাদের": 2766,
      "প্রচার": 2767,
      "স্বা": 2768,
      "বিশ্ববিদ্যালয়ের": 2769,
      "কিভাবে": 2770,
      "##মণ": 2771,
      "রাস্তা": 2772,
      "নেতৃত": 2773,
      "##ুস": 2774,
      "উৎস": 2775,
      "উপজেলা": 2776,
      "আপনাদের": 2777,
      "আমায়": 2778,
      "দৌ": 2779,
      "কালো": 2780,
      "##ve": 2781,
      "খুল": 2782,
      "দুঃখ": 2783,
      "অন্ধকার": 2784,
      "কিনা": 2785,
      "হইতে": 2786,
      "সাংবাদ": 2787,
      "বিব": 2788,
      "জি": 2789,
      "পাহ": 2790,
      "১৭": 2791,
      "বলছে": 2792,
      "শহরের": 2793,
      "মন্দ": 2794,
      "##্টার": 2795,
      "##বাজ": 2796,
      "##টন": 2797,
      "দর্শ": 2798,
      "অর": 2799,
      "##াজিক": 2800,
      "##িলের": 2801,
      "পছন্দ": 2802,
      "জিজ্ঞেস": 2803,
      "বাগ": 2804,
      "আলাদা": 2805,
      "দরজা": 2806,
      "সোম": 2807,
      "অ্যা": 2808,
      "রঙ": 2809,
      "##জীব": 2810,
      "অসু": 2811,
      "এলাকার": 2812,
      "কোম্প": 2813,
      "ভর্তি": 2814,
      "মস": 2815,
      "গিয়েছে": 2816,
      "অপেক্ষা": 2817,
      "তাড়": 2818,
      "বিমান": 2819,
      "বরং": 2820,
      "তারিখ": 2821,
      "নিরাপত্ত": 2822,
      "কই": 2823,
      "এদের": 2824,
      "মাছ": 2825,
      "##ংগ": 2826,
      "##ষ্ণ": 2827,
      "বেলা": 2828,
      "নজর": 2829,
      "বাবু": 2830,
      "ইত্য": 2831,
      "জড়িয়ে": 2832,
      "অল": 2833,
      "##্লি": 2834,
      "##্কা": 2835,
      "পালন": 2836,
      "মেনে": 2837,
      "কাউকে": 2838,
      "##ফা": 2839,
      "সপ্তাহ": 2840,
      "ভেতরে": 2841,
      "পড়েছে": 2842,
      "ওয়া": 2843,
      "##চা": 2844,
      "##ডার": 2845,
      "নিহত": 2846,
      "ব্যক্ত": 2847,
      "##াক্ত": 2848,
      "মালিক": 2849,
      "com": 2850,
      "হয়েছেন": 2851,
      "জড়": 2852,
      "##থি": 2853,
      "বাজে": 2854,
      "বৈঠ": 2855,
      "অর্থন": 2856,
      "প্রতিষ্ঠান": 2857,
      "বলার": 2858,
      "তাহার": 2859,
      "ঘটনার": 2860,
      "##াইট": 2861,
      "##র্গ": 2862,
      "নিচে": 2863,
      "##মেন্ট": 2864,
      "##ig": 2865,
      "ইন্টার": 2866,
      "শ্রমিক": 2867,
      "ঘণ": 2868,
      "অঞ্চ": 2869,
      "সাংবাদিক": 2870,
      "##িন্দু": 2871,
      "স্বামী": 2872,
      "সূর": 2873,
      "টিউ": 2874,
      "##শী": 2875,
      "উপজেলার": 2876,
      "জঙ্গ": 2877,
      "লেগে": 2878,
      "##্তা": 2879,
      "উপরে": 2880,
      "ঢুকে": 2881,
      "##ul": 2882,
      "##াবাহ": 2883,
      "ক্ষমতা": 2884,
      "অর্থা": 2885,
      "মুসলিম": 2886,
      "খুশি": 2887,
      "##্রেস": 2888,
      "লো": 2889,
      "##মকে": 2890,
      "শহর": 2891,
      "রাম": 2892,
      "জার": 2893,
      "##পরে": 2894,
      "দা": 2895,
      "##ভাগ": 2896,
      "##াইয়া": 2897,
      "শান্ত": 2898,
      "##ৃহ": 2899,
      "নো": 2900,
      "##ro": 2901,
      "মাসে": 2902,
      "বুদ্ধ": 2903,
      "##বের": 2904,
      "##মূল": 2905,
      "ত্র": 2906,
      "আবদুল": 2907,
      "সময়ের": 2908,
      "অর্থাৎ": 2909,
      "খাওয়া": 2910,
      "কবিতা": 2911,
      "চেয়ারম্যান": 2912,
      "##োজ": 2913,
      "##ময়": 2914,
      "##ুকুর": 2915,
      "ফেসব": 2916,
      "তোমরা": 2917,
      "পড়া": 2918,
      "সাড়ে": 2919,
      "স্বাভাবিক": 2920,
      "ভী": 2921,
      "##্যাত": 2922,
      "##ড়ায়": 2923,
      "গেলাম": 2924,
      "পরের": 2925,
      "##বাবু": 2926,
      "পাকিস্তানের": 2927,
      "বিজ": 2928,
      "প্রমাণ": 2929,
      "##ভাই": 2930,
      "##লেট": 2931,
      "উদ্ধার": 2932,
      "##িটির": 2933,
      "নৌ": 2934,
      "##েনার": 2935,
      "##লাপ": 2936,
      "টাকার": 2937,
      "নিশ্চয়": 2938,
      "পরিবর্তন": 2939,
      "পঞ্চ": 2940,
      "আহমে": 2941,
      "প্রস": 2942,
      "দাব": 2943,
      "শ্রেণ": 2944,
      "কোর": 2945,
      "রই": 2946,
      "তরুণ": 2947,
      "অস্ত্র": 2948,
      "ধারণা": 2949,
      "করো": 2950,
      "নিম": 2951,
      "##im": 2952,
      "##্যাব": 2953,
      "হাসপাত": 2954,
      "বুঝে": 2955,
      "পাগ": 2956,
      "মঙ্গল": 2957,
      "কঠিন": 2958,
      "ইম": 2959,
      "##কো": 2960,
      "ভাবতে": 2961,
      "ডাক্তার": 2962,
      "কারো": 2963,
      "সঙ্গ": 2964,
      "ইংরে": 2965,
      "রাজনীতি": 2966,
      "##পতি": 2967,
      "একদম": 2968,
      "##ীতির": 2969,
      "প্রেসি": 2970,
      "প্রভাব": 2971,
      "ম্য": 2972,
      "কখনও": 2973,
      "ভুলে": 2974,
      "##জিত": 2975,
      "বলছেন": 2976,
      "গভীর": 2977,
      "শুনতে": 2978,
      "মিলে": 2979,
      "নির্ব": 2980,
      "এরকম": 2981,
      "শান্তি": 2982,
      "##রণের": 2983,
      "##দ্দিন": 2984,
      "##িমা": 2985,
      "বিয়ের": 2986,
      "গুরুত্বপূর্ণ": 2987,
      "মূল্য": 2988,
      "##ড্ড": 2989,
      "ম্যাচ": 2990,
      "পৃথিবীর": 2991,
      "##র্ষ": 2992,
      "দিলাম": 2993,
      "চিকিৎস": 2994,
      "##ক্য": 2995,
      "##িয়াল": 2996,
      "১৯৯": 2997,
      "একমাত্র": 2998,
      "গায়ে": 2999,
      "বৃষ্টি": 3000,
      "##ণ্য": 3001,
      "##স্ম": 3002,
      "টেস্ট": 3003,
      "দিলে": 3004,
      "##ন্থ": 3005,
      "##িকায়": 3006,
      "##তর্ক": 3007,
      "কম্প": 3008,
      "##ত্তি": 3009,
      "মধ্যেই": 3010,
      "দাও": 3011,
      "দ্বারা": 3012,
      "##পাল": 3013,
      "রি": 3014,
      "প্রতিনি": 3015,
      "রিপ": 3016,
      "কাগ": 3017,
      "মেড": 3018,
      "##শার": 3019,
      "টেল": 3020,
      "উঠল": 3021,
      "সামাজিক": 3022,
      "ব্রি": 3023,
      "প্রস্তাব": 3024,
      "##ag": 3025,
      "##াতার": 3026,
      "##ায়ন": 3027,
      "হত্য": 3028,
      "গলায়": 3029,
      "লাগছে": 3030,
      "##িয়ন": 3031,
      "মার্কিন": 3032,
      "ময়": 3033,
      "অনুস": 3034,
      "##থার": 3035,
      "অবশ্যই": 3036,
      "দিচ্ছে": 3037,
      "বেগ": 3038,
      "বাধ্য": 3039,
      "ভূম": 3040,
      "উৎপ": 3041,
      "##ানির": 3042,
      "নাগর": 3043,
      "##াবাদ": 3044,
      "##ho": 3045,
      "##কিছু": 3046,
      "##য়নের": 3047,
      "প্রকল্প": 3048,
      "কর্তৃপক্ষ": 3049,
      "##মত": 3050,
      "ইত্যাদি": 3051,
      "##ডের": 3052,
      "রাস্তায়": 3053,
      "##লিক": 3054,
      "##ল্যান্ড": 3055,
      "অভিয": 3056,
      "শো": 3057,
      "মুক্তিয": 3058,
      "সন্দে": 3059,
      "এদিকে": 3060,
      "গ্রেপ্ত": 3061,
      "জেনে": 3062,
      "প্রকৃত": 3063,
      "##পুরের": 3064,
      "অগ": 3065,
      "##কর্ম": 3066,
      "##ামি": 3067,
      "##্নি": 3068,
      "গেলেন": 3069,
      "##িনার": 3070,
      "বিস্ত": 3071,
      "জুল": 3072,
      "##ধ্যে": 3073,
      "রাস": 3074,
      "##িয়েছে": 3075,
      "ফর": 3076,
      "পেশ": 3077,
      "##র্য": 3078,
      "ভাষা": 3079,
      "প্রতিটি": 3080,
      "রং": 3081,
      "কবি": 3082,
      "২৪": 3083,
      "##ation": 3084,
      "লুক": 3085,
      "দেখলাম": 3086,
      "রাজ্য": 3087,
      "বৌ": 3088,
      "##টাও": 3089,
      "ভবিষ": 3090,
      "মিস": 3091,
      "ঈশ": 3092,
      "ইতিহাস": 3093,
      "আমিও": 3094,
      "কাঁদ": 3095,
      "প্রবেশ": 3096,
      "বিশ্বের": 3097,
      "চির": 3098,
      "ছড়িয়ে": 3099,
      "##াতি": 3100,
      "##িরের": 3101,
      "কাক": 3102,
      "ধ্ব": 3103,
      "পাওয়ার": 3104,
      "সম্মেল": 3105,
      "ঠাক": 3106,
      "বিশ্ববিদ্যালয়": 3107,
      "প্রেসিডেন্ট": 3108,
      "সাবেক": 3109,
      "তোকে": 3110,
      "মন্তব্য": 3111,
      "##ীদ": 3112,
      "##ুড়": 3113,
      "যাক": 3114,
      "##শের": 3115,
      "##র্ধ": 3116,
      "প্রতিদিন": 3117,
      "ভবিষ্য": 3118,
      "এক্স": 3119,
      "অনেকেই": 3120,
      "ভেতর": 3121,
      "##িক্ত": 3122,
      "দেখার": 3123,
      "##us": 3124,
      "করোনা": 3125,
      "শি": 3126,
      "ট্রেন": 3127,
      "আস্তে": 3128,
      "নিঃ": 3129,
      "দখ": 3130,
      "গুলি": 3131,
      "you": 3132,
      "বিশাল": 3133,
      "বর্তমানে": 3134,
      "সিং": 3135,
      "##ূহ": 3136,
      "##শ্বাস": 3137,
      "##িত্ত": 3138,
      "চলচ্": 3139,
      "মুজিব": 3140,
      "পৌঁছ": 3141,
      "ঘটনায়": 3142,
      "##ab": 3143,
      "মেরে": 3144,
      "সংস্থা": 3145,
      "##োয়": 3146,
      "পল": 3147,
      "সংস্ক": 3148,
      "বিক্রি": 3149,
      "ঘো": 3150,
      "ব্যস্ত": 3151,
      "আচ": 3152,
      "চুল": 3153,
      "is": 3154,
      "##ুৎ": 3155,
      "বিনি": 3156,
      "হিসাবে": 3157,
      "##যোগ্য": 3158,
      "থাকি": 3159,
      "##ভব": 3160,
      "##চিব": 3161,
      "##প্রিয়": 3162,
      "মৃত্যুর": 3163,
      "##ফি": 3164,
      "ক্রিকেট": 3165,
      "পেছনে": 3166,
      "##য়র": 3167,
      "পাব": 3168,
      "হলেন": 3169,
      "বাণ": 3170,
      "পূর্ণ": 3171,
      "##িপি": 3172,
      "##আর": 3173,
      "বউ": 3174,
      "দৈ": 3175,
      "চিঠি": 3176,
      "এমনকি": 3177,
      "গ্রামে": 3178,
      "##োপা": 3179,
      "চিত্র": 3180,
      "আয়োজন": 3181,
      "ব্যাংক": 3182,
      "বাজার": 3183,
      "যুক্তরাষ্ট্র": 3184,
      "মজ": 3185,
      "ভিডিও": 3186,
      "পিছ": 3187,
      "##চক": 3188,
      "##্যান্ট": 3189,
      "বেঁচে": 3190,
      "আরে": 3191,
      "অন্যতম": 3192,
      "##িয়ায়": 3193,
      "##াগুল": 3194,
      "রয়ে": 3195,
      "আক্রান্ত": 3196,
      "##োস": 3197,
      "##হারা": 3198,
      "আলম": 3199,
      "##খানা": 3200,
      "শক্ত": 3201,
      "ভালোবাসা": 3202,
      "গবেষ": 3203,
      "সুপার": 3204,
      "জানিয়েছেন": 3205,
      "##্যায়ে": 3206,
      "আহত": 3207,
      "পৌঁছে": 3208,
      "বিভাগের": 3209,
      "সম্ভাব": 3210,
      "শহরে": 3211,
      "##ড়ের": 3212,
      "বিছ": 3213,
      "##সী": 3214,
      "চলা": 3215,
      "অন্তত": 3216,
      "শিখ": 3217,
      "সেল": 3218,
      "একেবারে": 3219,
      "বেশী": 3220,
      "##তন্ত্র": 3221,
      "ইচ্ছা": 3222,
      "কয়েকটি": 3223,
      "হাতের": 3224,
      "##ান্তর": 3225,
      "প্রাথ": 3226,
      "বঙ্গবন্ধ": 3227,
      "পেলে": 3228,
      "আন্দোলন": 3229,
      "সংক্র": 3230,
      "দোকান": 3231,
      "আহমেদ": 3232,
      "নদী": 3233,
      "##ণ্ঠ": 3234,
      "যন্ত্র": 3235,
      "চাকরি": 3236,
      "##য়োগ": 3237,
      "বিজে": 3238,
      "##্ণ": 3239,
      "##ঘট": 3240,
      "কাঠ": 3241,
      "শুক্র": 3242,
      "বিএনপির": 3243,
      "বছরে": 3244,
      "##ব্র": 3245,
      "সবাইকে": 3246,
      "স্মৃতি": 3247,
      "৫০": 3248,
      "থাম": 3249,
      "##ঙ্গা": 3250,
      "##াতায়": 3251,
      "২১": 3252,
      "##য়েন্ট": 3253,
      "প্রাথমিক": 3254,
      "শনি": 3255,
      "কথাটা": 3256,
      "##াত্ম": 3257,
      "প্রতিবাদ": 3258,
      "বস্ত": 3259,
      "থানার": 3260,
      "ফ্ল": 3261,
      "দিয়া": 3262,
      "##ter": 3263,
      "কিশোর": 3264,
      "বলছি": 3265,
      "মাঠে": 3266,
      "##াতাড়ি": 3267,
      "##োয়ার": 3268,
      "লাগলো": 3269,
      "##চল": 3270,
      "রেল": 3271,
      "##াসী": 3272,
      "##্জন": 3273,
      "উঠেছে": 3274,
      "অনুষ্ঠানে": 3275,
      "ডেকে": 3276,
      "যাঁ": 3277,
      "এরা": 3278,
      "চলবে": 3279,
      "জমা": 3280,
      "##্লো": 3281,
      "নিজেই": 3282,
      "স্থা": 3283,
      "##স্ট্র": 3284,
      "ছিলাম": 3285,
      "##ষ্টি": 3286,
      "কেন্দ্রীয়": 3287,
      "পরিণ": 3288,
      "মানুষকে": 3289,
      "টান": 3290,
      "লাগল": 3291,
      "বুকে": 3292,
      "পরিচালক": 3293,
      "দোষ": 3294,
      "ফিল": 3295,
      "মোবাইল": 3296,
      "জগ": 3297,
      "##চু": 3298,
      "জ্ঞান": 3299,
      "কমিটির": 3300,
      "রিক": 3301,
      "##রো": 3302,
      "##ঢ়": 3303,
      "কমিটি": 3304,
      "তৃত": 3305,
      "পায়ে": 3306,
      "লজ্জ": 3307,
      "বিধ": 3308,
      "বর্ষ": 3309,
      "নেওয়ার": 3310,
      "খাদ": 3311,
      "২২": 3312,
      "ইন্ড": 3313,
      "আবেদন": 3314,
      "বললে": 3315,
      "আপনারা": 3316,
      "সীমান": 3317,
      "বলো": 3318,
      "চাইলে": 3319,
      "সহযোগ": 3320,
      "টেনে": 3321,
      "মহান": 3322,
      "ভো": 3323,
      "##ত্ত্ব": 3324,
      "##un": 3325,
      "জানায়": 3326,
      "20": 3327,
      "চিৎ": 3328,
      "করবো": 3329,
      "নেন": 3330,
      "আনা": 3331,
      "ফেব": 3332,
      "ছেলের": 3333,
      "ভয়ে": 3334,
      "##প্রাপ্ত": 3335,
      "বিকে": 3336,
      "##কাপ": 3337,
      "স্বাধীনতা": 3338,
      "অনেকে": 3339,
      "পরিস্থিতি": 3340,
      "##ুরা": 3341,
      "আগুন": 3342,
      "পাহাড়": 3343,
      "মাত": 3344,
      "##থর": 3345,
      "চিন": 3346,
      "অত্য": 3347,
      "সেটি": 3348,
      "আসেন": 3349,
      "ভাস": 3350,
      "##নো": 3351,
      "পাবে": 3352,
      "গিয়েছিল": 3353,
      "খরচ": 3354,
      "মাসের": 3355,
      "বুধ": 3356,
      "বদলে": 3357,
      "পারেনি": 3358,
      "সম্পূর্ণ": 3359,
      "##ঠিক": 3360,
      "##লীগ": 3361,
      "কারও": 3362,
      "##কেরা": 3363,
      "কমে": 3364,
      "তাড়াতাড়ি": 3365,
      "পড়ল": 3366,
      "এপ্র": 3367,
      "শা": 3368,
      "কিন": 3369,
      "##ver": 3370,
      "পুরস্কার": 3371,
      "সাদা": 3372,
      "পাশের": 3373,
      "সোমবার": 3374,
      "##ান্দ": 3375,
      "রাখার": 3376,
      "নাগরিক": 3377,
      "শুয়ে": 3378,
      "পোশ": 3379,
      "##্রিক": 3380,
      "##্রয়": 3381,
      "মহিলা": 3382,
      "বৃহস্প": 3383,
      "চালিয়ে": 3384,
      "শীত": 3385,
      "জানেন": 3386,
      "ক্যা": 3387,
      "on": 3388,
      "নির্বাচনে": 3389,
      "মন্ত্র": 3390,
      "মোহাম্মদ": 3391,
      "##ক্ষেপ": 3392,
      "রাজধান": 3393,
      "পরবর্তী": 3394,
      "দৃশ্য": 3395,
      "##ইন": 3396,
      "সিন": 3397,
      "করতেন": 3398,
      "for": 3399,
      "হাসান": 3400,
      "##াম্প": 3401,
      "জনের": 3402,
      "খুন": 3403,
      "শিকার": 3404,
      "খেলে": 3405,
      "##দ্ধা": 3406,
      "ডিজ": 3407,
      "সেখান": 3408,
      "উপায়": 3409,
      "ভিত্তি": 3410,
      "তাও": 3411,
      "শনিবার": 3412,
      "##ায়ার": 3413,
      "অল্প": 3414,
      "রাই": 3415,
      "##োতে": 3416,
      "পরিকল্পনা": 3417,
      "##প্ট": 3418,
      "নভ": 3419,
      "বৃহস্পতি": 3420,
      "আগ্রহ": 3421,
      "##উট": 3422,
      "নিয়েছে": 3423,
      "##কল": 3424,
      "##ানিক": 3425,
      "বিজ্ঞান": 3426,
      "উঠলো": 3427,
      "সঠিক": 3428,
      "##তুর": 3429,
      "চিৎকার": 3430,
      "ফেব্র": 3431,
      "ঢাকার": 3432,
      "##দিষ্ট": 3433,
      "##ch": 3434,
      "নষ্ট": 3435,
      "##ুয়ে": 3436,
      "##ফিক": 3437,
      "##রূপ": 3438,
      "এটাই": 3439,
      "গতি": 3440,
      "গ্রেপ্তার": 3441,
      "ভিন্ন": 3442,
      "বাজারে": 3443,
      "তৃণ": 3444,
      "কারন": 3445,
      "উপল": 3446,
      "##িকেল": 3447,
      "নদীর": 3448,
      "শুক্রবার": 3449,
      "আজকের": 3450,
      "দ্য": 3451,
      "##গো": 3452,
      "অভিজ্ঞ": 3453,
      "গেছেন": 3454,
      "তবুও": 3455,
      "ছোট্ট": 3456,
      "##os": 3457,
      "চালু": 3458,
      "##জন্য": 3459,
      "দেখিয়ে": 3460,
      "লড়াই": 3461,
      "রাহ": 3462,
      "বোর্ড": 3463,
      "উদ্ব": 3464,
      "কাটা": 3465,
      "প্রকাশিত": 3466,
      "সদর": 3467,
      "লোকজন": 3468,
      "ভদ্র": 3469,
      "গলা": 3470,
      "##াতেই": 3471,
      "মিনিট": 3472,
      "সন্দেহ": 3473,
      "এমনি": 3474,
      "##র্জ": 3475,
      "সম্মান": 3476,
      "##ুয়া": 3477,
      "উন্নয়ন": 3478,
      "জবাব": 3479,
      "যাও": 3480,
      "##টিশ": 3481,
      "রান্না": 3482,
      "সূর্য": 3483,
      "শির": 3484,
      "##দ্ব": 3485,
      "##শল": 3486,
      "আজকে": 3487,
      "বুধবার": 3488,
      "তিনটি": 3489,
      "স্পষ্ট": 3490,
      "বৃহস্পতিবার": 3491,
      "##um": 3492,
      "চলচ্চিত্র": 3493,
      "তৃতীয়": 3494,
      "##ঙ্কা": 3495,
      "প্রত্যা": 3496,
      "দফ": 3497,
      "মুর": 3498,
      "আলোকে": 3499,
      "বিদ্যাল": 3500,
      "বোঝা": 3501,
      "সংগ্রহ": 3502,
      "কংগ": 3503,
      "##কারি": 3504,
      "##ন্দের": 3505,
      "অনুষ্ঠিত": 3506,
      "ছুটে": 3507,
      "প্রভ": 3508,
      "ঠাকুর": 3509,
      "দৃষ্ট": 3510,
      "সবকিছু": 3511,
      "##দিক": 3512,
      "এলাকা": 3513,
      "##স্থার": 3514,
      "দিলো": 3515,
      "মঙ্গলবার": 3516,
      "আদালত": 3517,
      "মুসলমান": 3518,
      "##ুধ": 3519,
      "##od": 3520,
      "উঠতে": 3521,
      "প্রার্থী": 3522,
      "বাসিন্দ": 3523,
      "##বেগ": 3524,
      "সর্বো": 3525,
      "The": 3526,
      "হিন্দু": 3527,
      "##ha": 3528,
      "ক্লাস": 3529,
      "##ান্স": 3530,
      "চিকিৎসা": 3531,
      "##গান": 3532,
      "##হ্ন": 3533,
      "ওখানে": 3534,
      "##ly": 3535,
      "##রির": 3536,
      "কয়েকজন": 3537,
      "চলেছে": 3538,
      "##em": 3539,
      "##রাজ": 3540,
      "সূত্রে": 3541,
      "পেয়েছে": 3542,
      "##খ্যাত": 3543,
      "অদ্": 3544,
      "দৃষ্টি": 3545,
      "বিবে": 3546,
      "কিছুক্ষণ": 3547,
      "মানসিক": 3548,
      "জেনার": 3549,
      "অ্যান্ড": 3550,
      "বিশ্বকাপ": 3551,
      "তৎ": 3552,
      "সফল": 3553,
      "রাতের": 3554,
      "বলেছে": 3555,
      "মনো": 3556,
      "সুম": 3557,
      "গরম": 3558,
      "পাস": 3559,
      "সহায়": 3560,
      "চাহ": 3561,
      "হবার": 3562,
      "কর্মসূ": 3563,
      "আটক": 3564,
      "সুবিধা": 3565,
      "শ্রী": 3566,
      "ইর": 3567,
      "সামান্য": 3568,
      "মুখের": 3569,
      "অনুষ্ঠান": 3570,
      "ধন্য": 3571,
      "লাশ": 3572,
      "##সুম": 3573,
      "অভিনয়": 3574,
      "##ৃতিক": 3575,
      "দো": 3576,
      "সেরা": 3577,
      "##ুনি": 3578,
      "বারবার": 3579,
      "সন্ত্র": 3580,
      "অগ্র": 3581,
      "দেবী": 3582,
      "লাগবে": 3583,
      "২৩": 3584,
      "প্যা": 3585,
      "পদ্ধ": 3586,
      "অত্যন্ত": 3587,
      "পড়াশ": 3588,
      "##কুম": 3589,
      "##দিনের": 3590,
      "##রস": 3591,
      "বাহিনী": 3592,
      "পের": 3593,
      "ছবির": 3594,
      "পড়ুন": 3595,
      "বলবে": 3596,
      "কিনে": 3597,
      "##িও": 3598,
      "খোলা": 3599,
      "গৃহ": 3600,
      "##ঙ্খ": 3601,
      "সংগঠন": 3602,
      "অস্ট্র": 3603,
      "পোশাক": 3604,
      "৪০": 3605,
      "স্কুলে": 3606,
      "শার": 3607,
      "ডিসেম্বর": 3608,
      "ছাপ": 3609,
      "নির্ভ": 3610,
      "##সন": 3611,
      "মাদ": 3612,
      "##ভুত": 3613,
      "বেল": 3614,
      "দলে": 3615,
      "যেত": 3616,
      "সামরিক": 3617,
      "জন্যই": 3618,
      "##her": 3619,
      "বেড়": 3620,
      "স্বীকার": 3621,
      "##ক্ষম": 3622,
      "রোব": 3623,
      "জেলার": 3624,
      "অধ্যাপ": 3625,
      "১৯৬": 3626,
      "গ্রুপ": 3627,
      "হয়ত": 3628,
      "মাঠ": 3629,
      "যায়নি": 3630,
      "বাংলার": 3631,
      "##ন্ত্রণাল": 3632,
      "##েশনের": 3633,
      "উদ্দেশ্য": 3634,
      "যাবার": 3635,
      "গার": 3636,
      "##হর": 3637,
      "##ভাবেই": 3638,
      "জনপ্রিয়": 3639,
      "পড়ার": 3640,
      "টিক": 3641,
      "সুন": 3642,
      "রোজ": 3643,
      "আহ্ব": 3644,
      "##এফ": 3645,
      "অক্ট": 3646,
      "রাজা": 3647,
      "##হিত": 3648,
      "19": 3649,
      "মতে": 3650,
      "##পাশে": 3651,
      "কানে": 3652,
      "##ীর্ষ": 3653,
      "##ামর্শ": 3654,
      "ঢাকায়": 3655,
      "কাহ": 3656,
      "##ীপ": 3657,
      "##ূন্য": 3658,
      "ইউর": 3659,
      "সড়ক": 3660,
      "স্বার্থ": 3661,
      "বুঝি": 3662,
      "ভেসে": 3663,
      "প্রব": 3664,
      "মন্ত্রণাল": 3665,
      "রক্ষা": 3666,
      "কীভাবে": 3667,
      "##াউন": 3668,
      "##াদে": 3669,
      "ভূমিকা": 3670,
      "শীর্ষ": 3671,
      "ধর্ষ": 3672,
      "##াসরি": 3673,
      "হেল": 3674,
      "জানানো": 3675,
      "খালে": 3676,
      "করিয়ে": 3677,
      "পত": 3678,
      "##েনের": 3679,
      "কিল": 3680,
      "বাধা": 3681,
      "##ist": 3682,
      "বৃষ্ট": 3683,
      "প্রতিযোগ": 3684,
      "আহম": 3685,
      "পরামর্শ": 3686,
      "সরাসরি": 3687,
      "##িমি": 3688,
      "সত্যিই": 3689,
      "##েধ": 3690,
      "দীপ": 3691,
      "বিজয়": 3692,
      "প্রণ": 3693,
      "ক্যাম্প": 3694,
      "##িয়াম": 3695,
      "বাঙালি": 3696,
      "জাগ": 3697,
      "ইয়া": 3698,
      "##গুলোতে": 3699,
      "থাকলেও": 3700,
      "ফেসবুক": 3701,
      "জুন": 3702,
      "মিড": 3703,
      "মিলিয়ে": 3704,
      "চরিত্র": 3705,
      "কার্যাল": 3706,
      "পাঠানো": 3707,
      "যাদের": 3708,
      "রাজি": 3709,
      "ব্যর্থ": 3710,
      "প্রদান": 3711,
      "be": 3712,
      "পারছে": 3713,
      "সমস্য": 3714,
      "পুনর": 3715,
      "##দুর": 3716,
      "নগ": 3717,
      "লেখক": 3718,
      "##দর্শন": 3719,
      "মন্ত্রী": 3720,
      "##ুড়ি": 3721,
      "সরে": 3722,
      "রক্ষ": 3723,
      "ভীষণ": 3724,
      "ভাষায়": 3725,
      "জিয়া": 3726,
      "##্যায়": 3727,
      "অস্ট্রেল": 3728,
      "##মাধ্য": 3729,
      "##রকম": 3730,
      "দুজনে": 3731,
      "কোচ": 3732,
      "অক্টো": 3733,
      "তোমায়": 3734,
      "গঠন": 3735,
      "আদি": 3736,
      "রাখে": 3737,
      "জুলাই": 3738,
      "এপ্রিল": 3739,
      "পরিমাণ": 3740,
      "কৃত": 3741,
      "রবি": 3742,
      "##ুনা": 3743,
      "যেক": 3744,
      "মেয়েদের": 3745,
      "ব্যাট": 3746,
      "প্রতির": 3747,
      "##ালাম": 3748,
      "বড়ো": 3749,
      "অস্ব": 3750,
      "বিএনপি": 3751,
      "##টিউ": 3752,
      "খোঁজ": 3753,
      "বিরোধী": 3754,
      "##ang": 3755,
      "প্রক্র": 3756,
      "##ালার": 3757,
      "সবুজ": 3758,
      "##ওয়াজ": 3759,
      "অ্যাপ": 3760,
      "দেখুন": 3761,
      "যথে": 3762,
      "জেনারেল": 3763,
      "নির্যাত": 3764,
      "কলেজের": 3765,
      "ভিতরে": 3766,
      "নীতি": 3767,
      "##যোগে": 3768,
      "##িরিক্ত": 3769,
      "হতা": 3770,
      "স্থানে": 3771,
      "আসি": 3772,
      "বোল": 3773,
      "##লাই": 3774,
      "রস": 3775,
      "##র্ন": 3776,
      "##াগত": 3777,
      "মির": 3778,
      "অদ্ভুত": 3779,
      "তখনই": 3780,
      "##পুরে": 3781,
      "উৎসব": 3782,
      "##গ্রহণ": 3783,
      "নামক": 3784,
      "##ess": 3785,
      "সত্ত": 3786,
      "দাদ": 3787,
      "গন্ধ": 3788,
      "বিদ্যুৎ": 3789,
      "স্ন": 3790,
      "শহীদ": 3791,
      "আটকে": 3792,
      "ক্যাম": 3793,
      "হামলা": 3794,
      "দাদা": 3795,
      "##গ্ধ": 3796,
      "##তেন": 3797,
      "##্ৰ": 3798,
      "নাহ": 3799,
      "গড়": 3800,
      "##তাব": 3801,
      "অনেকটা": 3802,
      "##জায়": 3803,
      "আসল": 3804,
      "বাক": 3805,
      "উদ্যোগ": 3806,
      "##ম্বা": 3807,
      "নিরাপত্তা": 3808,
      "##উল": 3809,
      "পড়ছে": 3810,
      "ঐতি": 3811,
      "##চেতন": 3812,
      "নিয়মিত": 3813,
      "খাই": 3814,
      "২৬": 3815,
      "তেম": 3816,
      "##সির": 3817,
      "##ঠনের": 3818,
      "##শালী": 3819,
      "বেশির": 3820,
      "শেয়ার": 3821,
      "##বাসী": 3822,
      "স্টে": 3823,
      "পাবেন": 3824,
      "অভ্য": 3825,
      "##ষা": 3826,
      "##ীব্র": 3827,
      "দুপুরে": 3828,
      "##্রাম": 3829,
      "মুক্তিযুদ্ধ": 3830,
      "##পথ": 3831,
      "##ce": 3832,
      "অনুরোধ": 3833,
      "##কেও": 3834,
      "সেপ্ট": 3835,
      "আয়ো": 3836,
      "কম্পিউ": 3837,
      "শোনা": 3838,
      "বাঁধ": 3839,
      "অধ্যাপক": 3840,
      "আবু": 3841,
      "ভাড়া": 3842,
      "হওয়ায়": 3843,
      "ছুঁ": 3844,
      "করেনি": 3845,
      "##হেতু": 3846,
      "বিপর": 3847,
      "##ুতে": 3848,
      "করত": 3849,
      "##মন্ত্র": 3850,
      "##যুক্তি": 3851,
      "##ড়ো": 3852,
      "##tt": 3853,
      "বাহিনীর": 3854,
      "সিরিজ": 3855,
      "##্গ": 3856,
      "পয়": 3857,
      "চলতে": 3858,
      "##ামান": 3859,
      "উৎপাদ": 3860,
      "দেহ": 3861,
      "যিনি": 3862,
      "ম্যাচে": 3863,
      "সরিয়ে": 3864,
      "চন্দ্র": 3865,
      "প্রত্যেক": 3866,
      "বাচ্চা": 3867,
      "১৯৫": 3868,
      "জুড়ে": 3869,
      "চেপে": 3870,
      "নিকট": 3871,
      "##ুপ্ত": 3872,
      "তেমনি": 3873,
      "সম্প্রতি": 3874,
      "এছাড়া": 3875,
      "কয়": 3876,
      "এখান": 3877,
      "ঘা": 3878,
      "তীব্র": 3879,
      "টুক": 3880,
      "অতিরিক্ত": 3881,
      "চাঁদ": 3882,
      "চুক্তি": 3883,
      "সমুদ্র": 3884,
      "##ষুধ": 3885,
      "থাকায়": 3886,
      "##ri": 3887,
      "দখল": 3888,
      "সর্বোচ্চ": 3889,
      "পদ্ধতি": 3890,
      "১৯৮": 3891,
      "##নীয়": 3892,
      "গাই": 3893,
      "ধন্যবাদ": 3894,
      "##ুনিক": 3895,
      "কেঁ": 3896,
      "গৌ": 3897,
      "আগস্ট": 3898,
      "প্রশ্নের": 3899,
      "পরিষ্কার": 3900,
      "ব্যাপারটা": 3901,
      "জ্য": 3902,
      "ব্যবসা": 3903,
      "জ্বাল": 3904,
      "আদালতে": 3905,
      "যাবো": 3906,
      "##ফুল": 3907,
      "কাব": 3908,
      "##ফোন": 3909,
      "থানায়": 3910,
      "দিব": 3911,
      "তালিকা": 3912,
      "উল্ট": 3913,
      "সন্ধ্যা": 3914,
      "নির্মাণ": 3915,
      "বিকেলে": 3916,
      "##র্বে": 3917,
      "মুখ্য": 3918,
      "##শেষে": 3919,
      "অদ": 3920,
      "সিটি": 3921,
      "ইতিহ": 3922,
      "ব্যক্তিগত": 3923,
      "ক্লাব": 3924,
      "হাঁট": 3925,
      "মের": 3926,
      "পারছি": 3927,
      "প্রাচ": 3928,
      "সাধ": 3929,
      "হাজির": 3930,
      "কবে": 3931,
      "খানিক": 3932,
      "ভিজ": 3933,
      "চী": 3934,
      "##ফের": 3935,
      "আলোচ": 3936,
      "প্রজ": 3937,
      "ঘণ্টা": 3938,
      "পরেই": 3939,
      "অফিসে": 3940,
      "বাড়িয়ে": 3941,
      "পর্যায়ে": 3942,
      "মূলত": 3943,
      "গুণ": 3944,
      "##্যান্স": 3945,
      "সাহিত্য": 3946,
      "জিজ্ঞাসা": 3947,
      "কিছুদিন": 3948,
      "বিক্ষ": 3949,
      "##চাল": 3950,
      "মাকে": 3951,
      "ঝুঁ": 3952,
      "অসা": 3953,
      "##ওয়ে": 3954,
      "সমর্থন": 3955,
      "যথেষ্ট": 3956,
      "২৮": 3957,
      "বুকের": 3958,
      "সিগ": 3959,
      "পিছনে": 3960,
      "মামলার": 3961,
      "সংঘ": 3962,
      "##্বার": 3963,
      "পাঠিয়ে": 3964,
      "বিপক্ষে": 3965,
      "হইবে": 3966,
      "নন": 3967,
      "চক্র": 3968,
      "##কারে": 3969,
      "হায়": 3970,
      "ডা": 3971,
      "আঘাত": 3972,
      "ধাক": 3973,
      "সুত": 3974,
      "রুমে": 3975,
      "##খার": 3976,
      "কলকাতা": 3977,
      "##লোক": 3978,
      "সিনে": 3979,
      "মুহূর্তে": 3980,
      "দাড়": 3981,
      "ব্যাং": 3982,
      "##ঁটে": 3983,
      "সুস্থ": 3984,
      "সম্ব": 3985,
      "বলেছিলেন": 3986,
      "##কালীন": 3987,
      "মহাস": 3988,
      "ওষুধ": 3989,
      "২৭": 3990,
      "আক্রমণ": 3991,
      "ছুটি": 3992,
      "কণ্ঠ": 3993,
      "##শ্র": 3994,
      "একাধ": 3995,
      "সংক": 3996,
      "##ডা": 3997,
      "রেক": 3998,
      "##ান্ত্রিক": 3999,
      "##ধর": 4000,
      "অভাব": 4001,
      "##্লিষ্ট": 4002,
      "##সাথে": 4003,
      "কলেজে": 4004,
      "রেজ": 4005,
      "দান": 4006,
      "সামনের": 4007,
      "##িশন": 4008,
      "খালি": 4009,
      "পরিশ": 4010,
      "কর্মী": 4011,
      "al": 4012,
      "হু": 4013,
      "নই": 4014,
      "##ুজ্জ": 4015,
      "সেনাবাহ": 4016,
      "##ণী": 4017,
      "বাণিজ": 4018,
      "মনোন": 4019,
      "##নির": 4020,
      "##োধন": 4021,
      "দিয়েছিল": 4022,
      "এগুলো": 4023,
      "পারব": 4024,
      "আজও": 4025,
      "টু": 4026,
      "##ঠিত": 4027,
      "খুঁজ": 4028,
      "চাম": 4029,
      "সৃষ্ট": 4030,
      "##গার": 4031,
      "ইউরোপ": 4032,
      "জমি": 4033,
      "আর্থ": 4034,
      "স্ত্র": 4035,
      "সাহস": 4036,
      "যাচ্ছি": 4037,
      "ইয়": 4038,
      "##hi": 4039,
      "##াত্ত": 4040,
      "##ারেট": 4041,
      "ক্ষমা": 4042,
      "##দায়": 4043,
      "জাপ": 4044,
      "##শিয়া": 4045,
      "ঘন": 4046,
      "পত্রিকা": 4047,
      "রাস্তার": 4048,
      "চিহ্ন": 4049,
      "তারিখের": 4050,
      "জানিয়েছে": 4051,
      "##ীম": 4052,
      "নিয়োগ": 4053,
      "খেয়াল": 4054,
      "খেলার": 4055,
      "st": 4056,
      "অঙ্গ": 4057,
      "ইনি": 4058,
      "নিয়েই": 4059,
      "রম": 4060,
      "ব্যাপক": 4061,
      "মেয়েটা": 4062,
      "ব্যাক": 4063,
      "সোন": 4064,
      "##ুড়ে": 4065,
      "নিশ্চয়ই": 4066,
      "সমালো": 4067,
      "শত্র": 4068,
      "##ill": 4069,
      "বীর": 4070,
      "অফিসার": 4071,
      "রবী": 4072,
      "##ob": 4073,
      "চাষ": 4074,
      "##িতির": 4075,
      "অর্জন": 4076,
      "এলে": 4077,
      "##হান": 4078,
      "চম": 4079,
      "যেটা": 4080,
      "উদ্দিন": 4081,
      "আকর": 4082,
      "ক্রম": 4083,
      "##ra": 4084,
      "শাস্তি": 4085,
      "মিষ্টি": 4086,
      "মিয়া": 4087,
      "সংসার": 4088,
      "নাটক": 4089,
      "নভেম্বর": 4090,
      "বয়সে": 4091,
      "অপেক্ষ": 4092,
      "অসহ": 4093,
      "ওয়ার্ড": 4094,
      "মুক্তিযো": 4095,
      "দুর্ন": 4096,
      "রিপোর্ট": 4097,
      "কুর": 4098,
      "পাখি": 4099,
      "##িদের": 4100,
      "অসুস্থ": 4101,
      "##্সে": 4102,
      "কার্যক্র": 4103,
      "লম্বা": 4104,
      "অভিনে": 4105,
      "ঝাঁ": 4106,
      "কাগজ": 4107,
      "জানুয়ারি": 4108,
      "মম": 4109,
      "##ct": 4110,
      "##ব্ধ": 4111,
      "ব্যবসায়": 4112,
      "##শ্ব": 4113,
      "স্কুলের": 4114,
      "বেসর": 4115,
      "##েমে": 4116,
      "##ফতার": 4117,
      "রেকর্ড": 4118,
      "ইতিম": 4119,
      "ফিরিয়ে": 4120,
      "##ুমাত্র": 4121,
      "১৯৪": 4122,
      "বিস্ম": 4123,
      "খেলোয়া": 4124,
      "বায়": 4125,
      "কেনো": 4126,
      "##্কে": 4127,
      "নির্দিষ্ট": 4128,
      "সান": 4129,
      "নিন": 4130,
      "কুমার": 4131,
      "পালিয়ে": 4132,
      "পেলাম": 4133,
      "মঞ্চ": 4134,
      "হচ্ছিল": 4135,
      "জড়িত": 4136,
      "ال": 4137,
      "##টিক": 4138,
      "রুপ": 4139,
      "পরিষদের": 4140,
      "পরিণত": 4141,
      "ভরে": 4142,
      "দেখেছি": 4143,
      "ট্রে": 4144,
      "রোববার": 4145,
      "রবীন্দ্র": 4146,
      "সাদ": 4147,
      "মিথ্যা": 4148,
      "সবই": 4149,
      "সাংস": 4150,
      "পারলে": 4151,
      "তোলা": 4152,
      "ধ্বংস": 4153,
      "দুর্ঘট": 4154,
      "১০০": 4155,
      "##িমের": 4156,
      "ঠোঁ": 4157,
      "সভায়": 4158,
      "কতটা": 4159,
      "খাব": 4160,
      "##পরি": 4161,
      "##est": 4162,
      "সাগর": 4163,
      "##বনে": 4164,
      "দিয়েছিলেন": 4165,
      "অনুভূ": 4166,
      "মাহম": 4167,
      "সমাজের": 4168,
      "বাম": 4169,
      "অক্টোবর": 4170,
      "##সান": 4171,
      "##বাড়": 4172,
      "##ৃতির": 4173,
      "পেছ": 4174,
      "যেহেতু": 4175,
      "প্রয়োজনীয়": 4176,
      "by": 4177,
      "##ায়ণ": 4178,
      "সমা": 4179,
      "ফেব্রুয়ারি": 4180,
      "##ok": 4181,
      "খাদ্য": 4182,
      "মাথার": 4183,
      "ভোর": 4184,
      "এসেছি": 4185,
      "##স্ফ": 4186,
      "আনতে": 4187,
      "লাইন": 4188,
      "##জিদ": 4189,
      "সংগ্রাম": 4190,
      "প্রচুর": 4191,
      "##পু": 4192,
      "অন্যদিকে": 4193,
      "সংশ্লিষ্ট": 4194,
      "পদে": 4195,
      "##op": 4196,
      "##ৃত্ত": 4197,
      "জামায়": 4198,
      "একাধিক": 4199,
      "##মিটার": 4200,
      "রাজ্যের": 4201,
      "গাছের": 4202,
      "##বছ": 4203,
      "##পনা": 4204,
      "দুজনের": 4205,
      "পাতা": 4206,
      "গোটা": 4207,
      "সংসদ": 4208,
      "ইউনিয়ন": 4209,
      "আধুনিক": 4210,
      "##নিয়া": 4211,
      "##শিয়ার": 4212,
      "জরুরি": 4213,
      "উভ": 4214,
      "##মন্ত্রীর": 4215,
      "অনুভব": 4216,
      "বিরক্ত": 4217,
      "##ামত": 4218,
      "চূ": 4219,
      "তাম": 4220,
      "##ুরে": 4221,
      "##্প্র": 4222,
      "re": 4223,
      "অবি": 4224,
      "কিছুতেই": 4225,
      "##ড়ির": 4226,
      "তেল": 4227,
      "শোন": 4228,
      "##বরা": 4229,
      "শাসন": 4230,
      "##ইয়া": 4231,
      "কার্ড": 4232,
      "আদেশ": 4233,
      "শরীরে": 4234,
      "##হু": 4235,
      "উইকেট": 4236,
      "সোহ": 4237,
      "টো": 4238,
      "ধান": 4239,
      "##্যাশন": 4240,
      "কাশ": 4241,
      "অভিম": 4242,
      "##িয়াস": 4243,
      "ইন্টারনে": 4244,
      "পৃথিবী": 4245,
      "ওটা": 4246,
      "নিজস্ব": 4247,
      "অভিযান": 4248,
      "যাবেন": 4249,
      "নির্বাচিত": 4250,
      "নান": 4251,
      "জট": 4252,
      "হাউ": 4253,
      "ইউনিয়নের": 4254,
      "সারাদ": 4255,
      "হিসাব": 4256,
      "পুত্র": 4257,
      "মেডিকেল": 4258,
      "প্রস্তুত": 4259,
      "##বেলা": 4260,
      "হৃদয়": 4261,
      "টিপ": 4262,
      "##চাপ": 4263,
      "##গ্ন": 4264,
      "বয়ে": 4265,
      "গোপন": 4266,
      "##ল্ল": 4267,
      "বিত": 4268,
      "##টেই": 4269,
      "কাউন্স": 4270,
      "টেব": 4271,
      "দেয়ার": 4272,
      "আশ্রয়": 4273,
      "রহস্য": 4274,
      "দেবেন": 4275,
      "মুখো": 4276,
      "১৯৭১": 4277,
      "নির্ভর": 4278,
      "ডান": 4279,
      "প্রশাসন": 4280,
      "##্বের": 4281,
      "##ht": 4282,
      "##and": 4283,
      "##ith": 4284,
      "কম্পিউটার": 4285,
      "##উদ্দিন": 4286,
      "আল্লাহর": 4287,
      "##োপাধ্যায়": 4288,
      "##মতো": 4289,
      "বলব": 4290,
      "নিয়ন্ত্র": 4291,
      "##গুলোকে": 4292,
      "বিবাহ": 4293,
      "অহ": 4294,
      "##সাম": 4295,
      "ভারতে": 4296,
      "##ুনের": 4297,
      "কমান": 4298,
      "ঘুমিয়ে": 4299,
      "জব": 4300,
      "##পাত": 4301,
      "বিধান": 4302,
      "আওয়াজ": 4303,
      "##িসং": 4304,
      "ট্রাম্প": 4305,
      "প্রশিক্ষ": 4306,
      "বেগম": 4307,
      "নির্বাচনের": 4308,
      "সেপ্টেম্বর": 4309,
      "জার্ম": 4310,
      "##ah": 4311,
      "সমাধান": 4312,
      "অস্থ": 4313,
      "মেয়েকে": 4314,
      "##শুর": 4315,
      "যু": 4316,
      "##াজের": 4317,
      "##ুল্লাহ": 4318,
      "দেরি": 4319,
      "সেবা": 4320,
      "দিত": 4321,
      "প্লে": 4322,
      "বেঁধে": 4323,
      "##বারের": 4324,
      "বিকেল": 4325,
      "সম্ভাবনা": 4326,
      "যেসব": 4327,
      "##িতায়": 4328,
      "##র্ভ": 4329,
      "দলীয়": 4330,
      "সকলের": 4331,
      "বঙ্গবন্ধু": 4332,
      "সার্ভ": 4333,
      "এড": 4334,
      "উন্ম": 4335,
      "আলোর": 4336,
      "দাস": 4337,
      "নারীর": 4338,
      "##মহ": 4339,
      "তাহা": 4340,
      "an": 4341,
      "মিন": 4342,
      "শুধ": 4343,
      "নিয়ন্ত্রণ": 4344,
      "সতর্ক": 4345,
      "##ূলক": 4346,
      "ভিতর": 4347,
      "##াদী": 4348,
      "হিম": 4349,
      "করছিল": 4350,
      "##িংস": 4351,
      "##টিভ": 4352,
      "কাপড়": 4353,
      "উদ্দেশ্যে": 4354,
      "যোগ্য": 4355,
      "একসাথে": 4356,
      "মাহমুদ": 4357,
      "##ia": 4358,
      "##ূত": 4359,
      "##ore": 4360,
      "সুল": 4361,
      "নগর": 4362,
      "নীর": 4363,
      "##স্থান": 4364,
      "সেনা": 4365,
      "শূন্য": 4366,
      "##জো": 4367,
      "ডলার": 4368,
      "বেদ": 4369,
      "##শু": 4370,
      "জোরে": 4371,
      "লোকের": 4372,
      "এইসব": 4373,
      "##ওনা": 4374,
      "ব্রিটিশ": 4375,
      "কপি": 4376,
      "পুজ": 4377,
      "##জির": 4378,
      "##িলার": 4379,
      "ভালোবাসার": 4380,
      "ধারণ": 4381,
      "বলুন": 4382,
      "মড": 4383,
      "গানের": 4384,
      "##চর": 4385,
      "মাটি": 4386,
      "##াটের": 4387,
      "সুই": 4388,
      "##ক্ষন": 4389,
      "##লাইন": 4390,
      "বুল": 4391,
      "হাসতে": 4392,
      "##ers": 4393,
      "অধিকা": 4394,
      "##রাং": 4395,
      "সমান": 4396,
      "##াপন": 4397,
      "ধারা": 4398,
      "হোট": 4399,
      "##োমিটার": 4400,
      "##ttp": 4401,
      "অধিকাংশ": 4402,
      "পার্থ": 4403,
      "প্রান্ত": 4404,
      "ব্যাগ": 4405,
      "##তেও": 4406,
      "প্রযুক্তি": 4407,
      "##lo": 4408,
      "বক": 4409,
      "হস্ত": 4410,
      "নিউজ": 4411,
      "##্কার": 4412,
      "চতুর": 4413,
      "তথা": 4414,
      "জনগণের": 4415,
      "##বন্দ": 4416,
      "##াবু": 4417,
      "##বিত্র": 4418,
      "নাগ": 4419,
      "##ধীন": 4420,
      "পারিনি": 4421,
      "##art": 4422,
      "মেয়েটি": 4423,
      "##ন্ব": 4424,
      "ফাই": 4425,
      "উড়": 4426,
      "বেসরকারি": 4427,
      "করলেও": 4428,
      "##াঙ্গ": 4429,
      "##চ্চার": 4430,
      "উত্তে": 4431,
      "##স্তি": 4432,
      "পাগল": 4433,
      "লুকিয়ে": 4434,
      "বাণিজ্য": 4435,
      "নন্দ": 4436,
      "প্লিজ": 4437,
      "যুক্তি": 4438,
      "##াব্দ": 4439,
      "প্রতিক": 4440,
      "##াকিব": 4441,
      "গবেষণা": 4442,
      "##পূর": 4443,
      "৩৫": 4444,
      "পত্রিকার": 4445,
      "##রাস": 4446,
      "যাকে": 4447,
      "ওপরে": 4448,
      "##াবেন": 4449,
      "অধিন": 4450,
      "মদ": 4451,
      "হাসপাতাল": 4452,
      "পরিচালনা": 4453,
      "চরম": 4454,
      "##ালে": 4455,
      "##িপ্ত": 4456,
      "কাঁচ": 4457,
      "তত্ত্ব": 4458,
      "বিদ্র": 4459,
      "ছাত্রলীগ": 4460,
      "বিস্তার": 4461,
      "##যাত্র": 4462,
      "সোজা": 4463,
      "##ৃঙ্খ": 4464,
      "সুতরাং": 4465,
      "সচেতন": 4466,
      "ব্যবহ": 4467,
      "##ক্ষিত": 4468,
      "টার": 4469,
      "##্মা": 4470,
      "কমপ": 4471,
      "আইনের": 4472,
      "##্বেও": 4473,
      "খেলোয়াড়": 4474,
      "সীম": 4475,
      "সবসময়": 4476,
      "জাল": 4477,
      "অনেকের": 4478,
      "de": 4479,
      "দিদি": 4480,
      "##ঙ্গের": 4481,
      "রিস": 4482,
      "am": 4483,
      "অনুমতি": 4484,
      "http": 4485,
      "পরীক্ষার": 4486,
      "সেন্ট": 4487,
      "দিয়েছি": 4488,
      "##ৃদ্ধ": 4489,
      "গাঁ": 4490,
      "পণ্য": 4491,
      "ঠিকই": 4492,
      "##00": 4493,
      "আকর্ষ": 4494,
      "দুর্বল": 4495,
      "সাঁ": 4496,
      "##শো": 4497,
      "##বাজার": 4498,
      "##জনক": 4499,
      "অর্থনৈতিক": 4500,
      "ইংল্যান্ড": 4501,
      "##লেক": 4502,
      "বী": 4503,
      "দেখছি": 4504,
      "ফুটবল": 4505,
      "এসেছেন": 4506,
      "২৯": 4507,
      "ইঞ্জ": 4508,
      "জলে": 4509,
      "##িদা": 4510,
      "মজা": 4511,
      "ভাত": 4512,
      "সচিব": 4513,
      "##র্স": 4514,
      "বিরাট": 4515,
      "##ত্রী": 4516,
      "ঘিরে": 4517,
      "পড়বে": 4518,
      "##প্রে": 4519,
      "ভরা": 4520,
      "##াগে": 4521,
      "দিয়েই": 4522,
      "শাম": 4523,
      "বলিয়া": 4524,
      "হালকা": 4525,
      "কার্যকর": 4526,
      "অধিক": 4527,
      "প্রস্তুতি": 4528,
      "সাফল": 4529,
      "বিদায়": 4530,
      "##টিয়ে": 4531,
      "সাংসদ": 4532,
      "নির্বাহী": 4533,
      "সিঁ": 4534,
      "ব্লগার": 4535,
      "যুবক": 4536,
      "##মু": 4537,
      "সহকারী": 4538,
      "ব্যক্তির": 4539,
      "##টাতে": 4540,
      "কথার": 4541,
      "as": 4542,
      "##ডেম": 4543,
      "তৈরী": 4544,
      "বিকা": 4545,
      "##ধানে": 4546,
      "##ামীর": 4547,
      "জেগে": 4548,
      "সেটাই": 4549,
      "খাল": 4550,
      "দেখলে": 4551,
      "শরীরের": 4552,
      "##য়ত": 4553,
      "তাছাড়া": 4554,
      "জানো": 4555,
      "করতেই": 4556,
      "##ম্য": 4557,
      "পারলাম": 4558,
      "নাও": 4559,
      "মামলায়": 4560,
      "##মল": 4561,
      "যুক্তরাষ্ট্রের": 4562,
      "ফ্রে": 4563,
      "পৃথিবীতে": 4564,
      "##াচার": 4565,
      "ফেরার": 4566,
      "##্দি": 4567,
      "বিখ্যাত": 4568,
      "ছাড়াও": 4569,
      "গাড়ির": 4570,
      "থেমে": 4571,
      "রেখেছে": 4572,
      "পেয়েছেন": 4573,
      "sh": 4574,
      "যেকোনো": 4575,
      "৩১": 4576,
      "নেয়া": 4577,
      "##বাল": 4578,
      "রাজশ": 4579,
      "##ঞ্জন": 4580,
      "কান্না": 4581,
      "মসজিদ": 4582,
      "##াগুলো": 4583,
      "##বাগ": 4584,
      "আচরণ": 4585,
      "বিজেপি": 4586,
      "##ম্ম": 4587,
      "##পোর্ট": 4588,
      "থেকেও": 4589,
      "ভাইয়ের": 4590,
      "ধাক্কা": 4591,
      "##াদেশ": 4592,
      "ধরতে": 4593,
      "বিপ্ল": 4594,
      "আর্ট": 4595,
      "নেট": 4596,
      "##ধিক": 4597,
      "##লোড": 4598,
      "রঙের": 4599,
      "দিবস": 4600,
      "##সু": 4601,
      "ইসলামের": 4602,
      "##ফার": 4603,
      "বানিয়ে": 4604,
      "চ্যা": 4605,
      "##ap": 4606,
      "সংর": 4607,
      "ড্রাই": 4608,
      "সেগুলো": 4609,
      "ওসি": 4610,
      "সৈয়": 4611,
      "পায়ের": 4612,
      "##ূর্তি": 4613,
      "খেলতে": 4614,
      "ভোগ": 4615,
      "আব্দ": 4616,
      "বাসা": 4617,
      "স্পর্শ": 4618,
      "কথাই": 4619,
      "##দীপ": 4620,
      "##জম": 4621,
      "##উর": 4622,
      "হর": 4623,
      "চুম": 4624,
      "##করা": 4625,
      "হাসপাতালের": 4626,
      "পবিত্র": 4627,
      "##ম্ভব": 4628,
      "পাপ": 4629,
      "বৈঠক": 4630,
      "নিয়েছেন": 4631,
      "নিত": 4632,
      "অবস্থিত": 4633,
      "খায়": 4634,
      "##ুজ্জামান": 4635,
      "ইংরেজ": 4636,
      "শ্যাম": 4637,
      "অসাধারণ": 4638,
      "সৈন্য": 4639,
      "##ib": 4640,
      "অর্ধ": 4641,
      "সমাবে": 4642,
      "##ন্টা": 4643,
      "##ভোগ": 4644,
      "আবুল": 4645,
      "ওপ": 4646,
      "আহ্বান": 4647,
      "##াজা": 4648,
      "##াজে": 4649,
      "##if": 4650,
      "##ছুর": 4651,
      "মাটিতে": 4652,
      "it": 4653,
      "টানা": 4654,
      "##্ডার": 4655,
      "##্লাম": 4656,
      "বসব": 4657,
      "বলেছিল": 4658,
      "ঘটন": 4659,
      "কবির": 4660,
      "পড়লো": 4661,
      "##্বরের": 4662,
      "যাঁরা": 4663,
      "কিলোমিটার": 4664,
      "উত": 4665,
      "উঁচ": 4666,
      "ওয়ান": 4667,
      "##নাম": 4668,
      "এসেছিল": 4669,
      "সিনেমা": 4670,
      "##বোধ": 4671,
      "তুলতে": 4672,
      "বলেছি": 4673,
      "ওনার": 4674,
      "হেঁটে": 4675,
      "জাতি": 4676,
      "সিক": 4677,
      "##ঙ্কর": 4678,
      "কোর্ট": 4679,
      "সহায়তা": 4680,
      "ফলা": 4681,
      "##ate": 4682,
      "আদর্শ": 4683,
      "that": 4684,
      "আড্ড": 4685,
      "##বাদী": 4686,
      "মতোই": 4687,
      "সন্ধ্যায়": 4688,
      "আইনজীব": 4689,
      "আরেকটি": 4690,
      "কোম্পানি": 4691,
      "বাঘ": 4692,
      "##হয়": 4693,
      "অভিজ্ঞতা": 4694,
      "##েক্ট": 4695,
      "প্রেমের": 4696,
      "##সভা": 4697,
      "##ুরের": 4698,
      "কাটিয়ে": 4699,
      "মশ": 4700,
      "ত্যাগ": 4701,
      "ভাবনা": 4702,
      "বৃদ্ধি": 4703,
      "ক্যান": 4704,
      "##জল": 4705,
      "##সভ": 4706,
      "যেভাবে": 4707,
      "আর্থিক": 4708,
      "অবশেষে": 4709,
      "##শিষ্ট": 4710,
      "##পণ": 4711,
      "কমিশন": 4712,
      "পাচ্ছে": 4713,
      "আবির": 4714,
      "##্বরে": 4715,
      "প্রতিবেদন": 4716,
      "সহ্য": 4717,
      "##োনাল": 4718,
      "ফি": 4719,
      "##গুলির": 4720,
      "##ইল": 4721,
      "টের": 4722,
      "মুঠ": 4723,
      "##ালির": 4724,
      "সাম্প্র": 4725,
      "জেল": 4726,
      "##َا": 4727,
      "অ্যাস": 4728,
      "নীচে": 4729,
      "ঋণ": 4730,
      "মুম": 4731,
      "প্রতিনিধি": 4732,
      "##ছা": 4733,
      "রয়েছেন": 4734,
      "আন্দোলনের": 4735,
      "পূর্বে": 4736,
      "স্মরণ": 4737,
      "##সিং": 4738,
      "তুলনায়": 4739,
      "##শিল্প": 4740,
      "##পুরি": 4741,
      "আও": 4742,
      "##াজী": 4743,
      "##ew": 4744,
      "কুকুর": 4745,
      "সভা": 4746,
      "জাতির": 4747,
      "দেড়": 4748,
      "শর্ত": 4749,
      "মরে": 4750,
      "কর্মচার": 4751,
      "ইংরেজি": 4752,
      "নেবে": 4753,
      "##প্তি": 4754,
      "চূড়": 4755,
      "##াপ্র": 4756,
      "সাক্ষাৎ": 4757,
      "টিভি": 4758,
      "##ন্দা": 4759,
      "আকাশের": 4760,
      "জিতে": 4761,
      "##াজন": 4762,
      "##লাে": 4763,
      "হাব": 4764,
      "সোনার": 4765,
      "লাগিয়ে": 4766,
      "ডু": 4767,
      "##লিত": 4768,
      "##ণ্ডের": 4769,
      "##্রো": 4770,
      "##্দের": 4771,
      "দারুণ": 4772,
      "গাড়িতে": 4773,
      "পড়েন": 4774,
      "সমস্যার": 4775,
      "##লিশ": 4776,
      "হইল": 4777,
      "##খানি": 4778,
      "পারেননি": 4779,
      "পদক্ষেপ": 4780,
      "মিছিল": 4781,
      "আহমদ": 4782,
      "টুই": 4783,
      "নেতৃত্বে": 4784,
      "নক": 4785,
      "আশ্চ": 4786,
      "মায়": 4787,
      "ওয়েবস": 4788,
      "##ain": 4789,
      "##বায়": 4790,
      "জোট": 4791,
      "কুল": 4792,
      "সংস্থার": 4793,
      "ভ্র": 4794,
      "গ্রেফতার": 4795,
      "স্য": 4796,
      "##উন্ট": 4797,
      "আবারও": 4798,
      "ভ্রম": 4799,
      "এফ": 4800,
      "##মূ": 4801,
      "টেকটিউ": 4802,
      "হত্যার": 4803,
      "##জান": 4804,
      "খাঁ": 4805,
      "##এল": 4806,
      "চেহারা": 4807,
      "নিখ": 4808,
      "তল": 4809,
      "বর্ণনা": 4810,
      "সম্মেলনে": 4811,
      "পাখ": 4812,
      "সম্পদ": 4813,
      "##িস্টার": 4814,
      "##ন্দ্ব": 4815,
      "ম্যানে": 4816,
      "আত্মীয়": 4817,
      "লোকটা": 4818,
      "##ort": 4819,
      "সৈয়দ": 4820,
      "##িসের": 4821,
      "##িলে": 4822,
      "##কির": 4823,
      "কংগ্রেস": 4824,
      "গোয়ে": 4825,
      "ডাউন": 4826,
      "সক্ষম": 4827,
      "##ঘর": 4828,
      "মেয়র": 4829,
      "মাদ্র": 4830,
      "লিখেছেন": 4831,
      "ব্যাখ্যা": 4832,
      "খাওয়ার": 4833,
      "ঘটেছে": 4834,
      "##্যাক্স": 4835,
      "##তান্ত্রিক": 4836,
      "##ভাষ": 4837,
      "with": 4838,
      "ঈশ্বর": 4839,
      "টেকটিউন": 4840,
      "##্নার": 4841,
      "চূড়ান্ত": 4842,
      "##ষ্ক": 4843,
      "##বনের": 4844,
      "উৎসাহ": 4845,
      "দুধ": 4846,
      "সীমান্ত": 4847,
      "কৃষ্ণ": 4848,
      "##সঙ্গে": 4849,
      "##্টে": 4850,
      "ধর্মীয়": 4851,
      "দেখল": 4852,
      "দম": 4853,
      "সমন্ব": 4854,
      "করায়": 4855,
      "উপক": 4856,
      "বাবাকে": 4857,
      "ছুট": 4858,
      "যথ": 4859,
      "##ণার": 4860,
      "অক্ষ": 4861,
      "বিক্ষোভ": 4862,
      "দেখেন": 4863,
      "##সাই": 4864,
      "আবেগ": 4865,
      "প্রক্রিয়া": 4866,
      "খাত": 4867,
      "##ন্ডার": 4868,
      "অসুবি": 4869,
      "বাসিন্দা": 4870,
      "অধ্য": 4871,
      "কোলে": 4872,
      "অচ": 4873,
      "অনুভূতি": 4874,
      "অ্যাল": 4875,
      "রইল": 4876,
      "ফোনে": 4877,
      "ব্যবসায়ী": 4878,
      "কারণেই": 4879,
      "##াবর": 4880,
      "শাড়ি": 4881,
      "ঠান্ড": 4882,
      "মৌসুম": 4883,
      "সঞ্চ": 4884,
      "##িতি": 4885,
      "টাইম": 4886,
      "or": 4887,
      "চিকিৎসক": 4888,
      "##ত্তর": 4889,
      "লিখতে": 4890,
      "অধিনায়ক": 4891,
      "চুরি": 4892,
      "##ামার": 4893,
      "কাছাকা": 4894,
      "##্ষিক": 4895,
      "গেছি": 4896,
      "দৈনিক": 4897,
      "লেখার": 4898,
      "সম্ভবত": 4899,
      "একসময়": 4900,
      "স্নে": 4901,
      "আপাত": 4902,
      "বারান্দ": 4903,
      "এইচ": 4904,
      "পুরোনো": 4905,
      "ভবন": 4906,
      "বিশেষজ্ঞ": 4907,
      "##ost": 4908,
      "জলের": 4909,
      "##টেড": 4910,
      "কাছাকাছি": 4911,
      "ছবিতে": 4912,
      "ভিড়": 4913,
      "যুদ্ধের": 4914,
      "##গাঁ": 4915,
      "কার্যক্রম": 4916,
      "এসো": 4917,
      "প্রতিবেদ": 4918,
      "##ik": 4919,
      "প্রতিরোধ": 4920,
      "##ুরুর": 4921,
      "স্বাধীনতার": 4922,
      "জটিল": 4923,
      "বাইরের": 4924,
      "সংস্কার": 4925,
      "বংশ": 4926,
      "স্বীক": 4927,
      "ইক": 4928,
      "উজ্জ": 4929,
      "অবৈ": 4930,
      "অসম্ভব": 4931,
      "##গু": 4932,
      "আঙ": 4933,
      "জ্বল": 4934,
      "##োটা": 4935,
      "ডায়": 4936,
      "নিষেধ": 4937,
      "তান": 4938,
      "নিম্ন": 4939,
      "##ীর্ণ": 4940,
      "যুদ্ধে": 4941,
      "##ন্দ্রে": 4942,
      "করেছিলাম": 4943,
      "সম্বন্ধ": 4944,
      "পরও": 4945,
      "ফুটে": 4946,
      "৬০": 4947,
      "##ud": 4948,
      "য়": 4949,
      "অসং": 4950,
      "নির্ধার": 4951,
      "জনগণ": 4952,
      "প্রো": 4953,
      "ওঁ": 4954,
      "##se": 4955,
      "##িত্বে": 4956,
      "পুরনো": 4957,
      "শুধুমাত্র": 4958,
      "তিনজন": 4959,
      "পাকিস্তানি": 4960,
      "##টর": 4961,
      "চক": 4962,
      "##াদ্দ": 4963,
      "চ্যাম্প": 4964,
      "##াজার": 4965,
      "থাকবেন": 4966,
      "##গের": 4967,
      "##াসন": 4968,
      "##ub": 4969,
      "খালেদা": 4970,
      "এয়ার": 4971,
      "লন্ড": 4972,
      "ব্যাংকের": 4973,
      "##োগে": 4974,
      "সাধারণত": 4975,
      "লজ্জা": 4976,
      "##গণ": 4977,
      "দোকানে": 4978,
      "উপন্য": 4979,
      "করতো": 4980,
      "আকাশে": 4981,
      "##াত্মক": 4982,
      "রণ": 4983,
      "দেখো": 4984,
      "##ৃত্তি": 4985,
      "##বেল": 4986,
      "আড়": 4987,
      "কারনে": 4988,
      "দেই": 4989,
      "তাপ": 4990,
      "ভারপ্রাপ্ত": 4991,
      "যেই": 4992,
      "নেশ": 4993,
      "অনির": 4994,
      "ডাকে": 4995,
      "ভাগ্য": 4996,
      "হবেন": 4997,
      "প্রাচীন": 4998,
      "আসামি": 4999,
      "চমকে": 5000,
      "মায়া": 5001,
      "ক্লিক": 5002,
      "ভগ": 5003,
      "মোক": 5004,
      "In": 5005,
      "##মানের": 5006,
      "ইনস্ট": 5007,
      "ভঙ্গ": 5008,
      "বার্তা": 5009,
      "পানির": 5010,
      "##ন্দন": 5011,
      "পয়েন্ট": 5012,
      "সংবি": 5013,
      "নূর": 5014,
      "বাতিল": 5015,
      "##তিক্রম": 5016,
      "ফেরত": 5017,
      "কাদের": 5018,
      "প্রাক": 5019,
      "সরবরা": 5020,
      "যৌন": 5021,
      "তৃণমূল": 5022,
      "কর্তৃক": 5023,
      "বটে": 5024,
      "আসুন": 5025,
      "ভিত্তিতে": 5026,
      "বিপদ": 5027,
      "##ষে": 5028,
      "ধর্মের": 5029,
      "প্রমুখ": 5030,
      "অপার": 5031,
      "##রাই": 5032,
      "##ld": 5033,
      "##ঙ্কার": 5034,
      "##দেশের": 5035,
      "ছেলেটা": 5036,
      "সংক্রান্ত": 5037,
      "বোধহয়": 5038,
      "##বাবুর": 5039,
      "অপ্র": 5040,
      "নর": 5041,
      "উৎপাদন": 5042,
      "##াসহ": 5043,
      "নিচের": 5044,
      "##্থা": 5045,
      "কৃষি": 5046,
      "##ভূত": 5047,
      "মেল": 5048,
      "##পালে": 5049,
      "##বিক": 5050,
      "পৃষ্ঠ": 5051,
      "পেরিয়ে": 5052,
      "ক্রে": 5053,
      "ডাল": 5054,
      "পরদিন": 5055,
      "বিদ্রোহ": 5056,
      "ঝুল": 5057,
      "##লির": 5058,
      "অতিথি": 5059,
      "অক": 5060,
      "যাচ্ছেন": 5061,
      "তাদেরকে": 5062,
      "উপলক্ষে": 5063,
      "পার্ক": 5064,
      "কলকাতার": 5065,
      "মেশ": 5066,
      "পুকুর": 5067,
      "শৈ": 5068,
      "##জ্ঞান": 5069,
      "##িদ্ধ": 5070,
      "দেবার": 5071,
      "##rom": 5072,
      "কল্যা": 5073,
      "আবি": 5074,
      "সংস্কৃতি": 5075,
      "##টকে": 5076,
      "করেও": 5077,
      "যাত্রা": 5078,
      "বেতন": 5079,
      "সিম": 5080,
      "পুরোপুরি": 5081,
      "শিক্ষার্থী": 5082,
      "অবৈধ": 5083,
      "##কেটে": 5084,
      "নাচ": 5085,
      "পাথর": 5086,
      "ক্যাপ": 5087,
      "পরিবহ": 5088,
      "##টোর": 5089,
      "##য়ান": 5090,
      "মাটির": 5091,
      "৪৫": 5092,
      "সিংহ": 5093,
      "যাচ্ছিল": 5094,
      "স্মার্ট": 5095,
      "বাপ": 5096,
      "সারাদিন": 5097,
      "অত্যা": 5098,
      "##াতো": 5099,
      "বৈঠকে": 5100,
      "আলাপ": 5101,
      "কমিউ": 5102,
      "রাজাকার": 5103,
      "পার্টি": 5104,
      "চারটি": 5105,
      "##লক": 5106,
      "##াকের": 5107,
      "হামলার": 5108,
      "উন্নত": 5109,
      "কারা": 5110,
      "কাউন্সিল": 5111,
      "যথা": 5112,
      "উপহার": 5113,
      "নেতৃত্ব": 5114,
      "সন": 5115,
      "##াবী": 5116,
      "ভক্ত": 5117,
      "প্রাই": 5118,
      "##াইয়ের": 5119,
      "বিতর্ক": 5120,
      "গবেষণ": 5121,
      "##oy": 5122,
      "করপ": 5123,
      "##ৎকার": 5124,
      "পরাজ": 5125,
      "##ুদের": 5126,
      "ক্ষমতায়": 5127,
      "ইচ্ছ": 5128,
      "con": 5129,
      "শক্তিশালী": 5130,
      "আফ্র": 5131,
      "হাট": 5132,
      "##ুরী": 5133,
      "মূ": 5134,
      "ch": 5135,
      "##ant": 5136,
      "প্রকৃতি": 5137,
      "সফট": 5138,
      "##োদন": 5139,
      "মতন": 5140,
      "কলকাতায়": 5141,
      "বিছানায়": 5142,
      "দৌড়ে": 5143,
      "##িক্স": 5144,
      "পারবো": 5145,
      "হলাম": 5146,
      "ঘন্টা": 5147,
      "অ্য": 5148,
      "##েও": 5149,
      "প্রয়ো": 5150,
      "##মুখি": 5151,
      "গণতন্ত্র": 5152,
      "সংঘর্ষ": 5153,
      "মুছে": 5154,
      "কর্মীদের": 5155,
      "আদায়": 5156,
      "সত্ত্বেও": 5157,
      "প্রসঙ্গে": 5158,
      "এঁ": 5159,
      "জিত": 5160,
      "##কারীদের": 5161,
      "ব্রে": 5162,
      "কর্মসূচি": 5163,
      "অভিযোগে": 5164,
      "##ity": 5165,
      "সার্ব": 5166,
      "চলো": 5167,
      "বৃষ্টির": 5168,
      "নিষিদ্ধ": 5169,
      "##পাশের": 5170,
      "এতদিন": 5171,
      "২০১৪": 5172,
      "বন্ধুর": 5173,
      "জানাতে": 5174,
      "সন্তানের": 5175,
      "##মূলক": 5176,
      "ছোঁ": 5177,
      "##মিন": 5178,
      "##যন্ত্র": 5179,
      "##্যাশনাল": 5180,
      "সন্ত্রাস": 5181,
      "##িয়াছে": 5182,
      "কারাগ": 5183,
      "আজাদ": 5184,
      "একাডেম": 5185,
      "সুপ্র": 5186,
      "ঝাম": 5187,
      "এলাম": 5188,
      "গ্ল": 5189,
      "##বর্ষ": 5190,
      "ব্যয়": 5191,
      "##মর": 5192,
      "ঘৃ": 5193,
      "##জাহ": 5194,
      "প্রদ": 5195,
      "পার্টির": 5196,
      "রিম": 5197,
      "হলেই": 5198,
      "স্থায়ী": 5199,
      "শারীর": 5200,
      "Al": 5201,
      "শিল্পী": 5202,
      "হতেই": 5203,
      "ম্যান": 5204,
      "রীতি": 5205,
      "মেয়": 5206,
      "##ক্ষণে": 5207,
      "হরি": 5208,
      "##ৎস": 5209,
      "সিলে": 5210,
      "রাত্র": 5211,
      "খব": 5212,
      "২০১৩": 5213,
      "ক্যার": 5214,
      "##all": 5215,
      "##াচ": 5216,
      "##চ্ছিন্ন": 5217,
      "ধন": 5218,
      "গুগ": 5219,
      "জমে": 5220,
      "##ড়াতে": 5221,
      "করেননি": 5222,
      "পিতা": 5223,
      "##তাকে": 5224,
      "পেয়েছি": 5225,
      "বন্ধুত": 5226,
      "প্রবল": 5227,
      "কয়েকটা": 5228,
      "##টক": 5229,
      "দুর্গ": 5230,
      "আশ্চর্য": 5231,
      "বাড়ছে": 5232,
      "##্যানেল": 5233,
      "##ry": 5234,
      "##োধী": 5235,
      "মুখোমুখি": 5236,
      "সুলত": 5237,
      "অর্থনীতি": 5238,
      "##রব": 5239,
      "বেড়েছে": 5240,
      "##শান": 5241,
      "অতীত": 5242,
      "নং": 5243,
      "##স্ত্র": 5244,
      "##রুল": 5245,
      "সের": 5246,
      "সংগঠনের": 5247,
      "তৈরির": 5248,
      "দুর্নীতি": 5249,
      "ব্যাব": 5250,
      "##ai": 5251,
      "নামিয়ে": 5252,
      "##og": 5253,
      "স্বামীর": 5254,
      "দিল্ল": 5255,
      "মোর": 5256,
      "আখ": 5257,
      "৩২": 5258,
      "##ীরের": 5259,
      "মেজ": 5260,
      "আইস": 5261,
      "কেননা": 5262,
      "##শক": 5263,
      "বাতাস": 5264,
      "রাজধানীর": 5265,
      "বন্ধুদের": 5266,
      "ঝড়": 5267,
      "বলবো": 5268,
      "রোহি": 5269,
      "ডিম": 5270,
      "এলেন": 5271,
      "বসবাস": 5272,
      "বিনিয়োগ": 5273,
      "রেগে": 5274,
      "ইত": 5275,
      "##ধিকার": 5276,
      "পর্দ": 5277,
      "সাংস্ক": 5278,
      "তাঁহার": 5279,
      "উদাহ": 5280,
      "কথাগুলো": 5281,
      "##িংক": 5282,
      "##one": 5283,
      "ইন্টারনেট": 5284,
      "ইহ": 5285,
      "ঘাট": 5286,
      "##ভার্স": 5287,
      "গাল": 5288,
      "ইট": 5289,
      "জানার": 5290,
      "##ong": 5291,
      "হাসিনা": 5292,
      "চাপা": 5293,
      "জনসং": 5294,
      "প্রজন্ম": 5295,
      "ধাপ": 5296,
      "পরিষদ": 5297,
      "##ক্টর": 5298,
      "উপস্থা": 5299,
      "বিশ্ববিদ্যালয়ে": 5300,
      "আসন": 5301,
      "##াদু": 5302,
      "পরেও": 5303,
      "তাজ": 5304,
      "##িসংঘ": 5305,
      "বলিল": 5306,
      "ন্যায়": 5307,
      "আজকাল": 5308,
      "থানা": 5309,
      "সাড়া": 5310,
      "##ect": 5311,
      "সহজে": 5312,
      "চেত": 5313,
      "ঠান্ডা": 5314,
      "লোকে": 5315,
      "ফেলা": 5316,
      "অস্তিত্ব": 5317,
      "##িদার": 5318,
      "##িকভাবে": 5319,
      "কেঁদে": 5320,
      "জাতিসংঘ": 5321,
      "কাহিনী": 5322,
      "নেতারা": 5323,
      "বয়সী": 5324,
      "সৌর": 5325,
      "উঠছে": 5326,
      "গেম": 5327,
      "বিনা": 5328,
      "শিশুদের": 5329,
      "আকর্ষণ": 5330,
      "নিরাপদ": 5331,
      "ক্ষুদ্র": 5332,
      "নেতাদের": 5333,
      "বিদেশি": 5334,
      "২০১৫": 5335,
      "##েশনে": 5336,
      "##গতি": 5337,
      "##শনের": 5338,
      "ঠিকানা": 5339,
      "##্যাপী": 5340,
      "ছেলেকে": 5341,
      "##য়েন": 5342,
      "স্থির": 5343,
      "##ক্রিয়": 5344,
      "##র্মে": 5345,
      "আমেরিকার": 5346,
      "সাংস্কৃতিক": 5347,
      "##াচার্য": 5348,
      "নোট": 5349,
      "বিস্ফ": 5350,
      "are": 5351,
      "not": 5352,
      "সৌন্দর": 5353,
      "ইতিমধ্যে": 5354,
      "##ভারে": 5355,
      "পুঁ": 5356,
      "##গ্রস্ত": 5357,
      "উভয়": 5358,
      "##গঞ্জের": 5359,
      "ভারী": 5360,
      "সেকে": 5361,
      "দিচ্ছি": 5362,
      "কাঁদতে": 5363,
      "অসংখ্য": 5364,
      "মনোনয়ন": 5365,
      "বিপুল": 5366,
      "আদালতের": 5367,
      "ভেঙ্গে": 5368,
      "চ্যাম্পিয়ন": 5369,
      "চোর": 5370,
      "##য়ী": 5371,
      "##age": 5372,
      "গেলেও": 5373,
      "একসঙ্গে": 5374,
      "##নিষ্ঠ": 5375,
      "মাংস": 5376,
      "হুমকি": 5377,
      "##ড়ালে": 5378,
      "##সম্যান": 5379,
      "চীন": 5380,
      "##ওয়্যার": 5381,
      "মেলে": 5382,
      "আলাই": 5383,
      "শুনি": 5384,
      "রাহুল": 5385,
      "সেসব": 5386,
      "দিবে": 5387,
      "##্যালো": 5388,
      "##হত্যা": 5389,
      "শিক্ষার্থীদের": 5390,
      "##ফট": 5391,
      "##ওয়াল": 5392,
      "ধারে": 5393,
      "আরব": 5394,
      "সমাধ": 5395,
      "এখানেই": 5396,
      "মুঠো": 5397,
      "অন্যায়": 5398,
      "দিই": 5399,
      "ফাইল": 5400,
      "হান": 5401,
      "##ঘাট": 5402,
      "গ্যাস": 5403,
      "##চন্দ্র": 5404,
      "##oc": 5405,
      "ভালোই": 5406,
      "দেখানো": 5407,
      "##াইতে": 5408,
      "সংগীত": 5409,
      "ব্যক্তিদের": 5410,
      "রহমানের": 5411,
      "বেছে": 5412,
      "প্রতিষ্ঠানের": 5413,
      "দেখেই": 5414,
      "ডিগ্র": 5415,
      "০০": 5416,
      "##ঞ্চল": 5417,
      "উড়ে": 5418,
      "ফেলতে": 5419,
      "##চন": 5420,
      "সভ্য": 5421,
      "নবী": 5422,
      "##ময়ে": 5423,
      "##িত্তিক": 5424,
      "##িলি": 5425,
      "অনুপ": 5426,
      "স্থাপন": 5427,
      "নজরুল": 5428,
      "আবিষ্কার": 5429,
      "ছায়া": 5430,
      "##ামো": 5431,
      "বিশ্লে": 5432,
      "প্রশিক্ষণ": 5433,
      "মামা": 5434,
      "প্রতিষ্ঠিত": 5435,
      "কন্যা": 5436,
      "##eb": 5437,
      "বিচ": 5438,
      "সপ্তাহে": 5439,
      "##ডিয়": 5440,
      "মৃদ": 5441,
      "কের": 5442,
      "প্রাপ্ত": 5443,
      "##th": 5444,
      "প্রয়োগ": 5445,
      "অস্বীকার": 5446,
      "অবর": 5447,
      "পাত্র": 5448,
      "আউট": 5449,
      "সেরে": 5450,
      "জানালেন": 5451,
      "কপালে": 5452,
      "##বিলে": 5453,
      "উঁচু": 5454,
      "ধারাবাহ": 5455,
      "অংশগ্রহণ": 5456,
      "দত্ত": 5457,
      "শ্ব": 5458,
      "##গির": 5459,
      "##চ্ছেদ": 5460,
      "##রাতে": 5461,
      "পরম": 5462,
      "ফুলের": 5463,
      "জ্যো": 5464,
      "করপোর": 5465,
      "সাহেবের": 5466,
      "ক্লান্ত": 5467,
      "তখনও": 5468,
      "খানিকটা": 5469,
      "মুগ্ধ": 5470,
      "St": 5471,
      "কির": 5472,
      "##টপ": 5473,
      "##মাল": 5474,
      "জোগ": 5475,
      "##ঙ্গার": 5476,
      "কামাল": 5477,
      "কাছেই": 5478,
      "রবীন্দ্রনাথ": 5479,
      "##শত": 5480,
      "##াসি": 5481,
      "##শাল": 5482,
      "বুঝিয়ে": 5483,
      "##কুমার": 5484,
      "লাফ": 5485,
      "কখনোই": 5486,
      "##লাতে": 5487,
      "পূরণ": 5488,
      "এক্ষ": 5489,
      "##লম্ব": 5490,
      "লেন": 5491,
      "দিচ্ছেন": 5492,
      "লক": 5493,
      "অসহায়": 5494,
      "দুর্ভ": 5495,
      "চেনা": 5496,
      "কতো": 5497,
      "স্বভাব": 5498,
      "##শির": 5499,
      "ইন্দ্র": 5500,
      "কমিশনার": 5501,
      "##ীবন": 5502,
      "##ীনে": 5503,
      "##বদ্ধ": 5504,
      "সিস্ট": 5505,
      "অফিসের": 5506,
      "পয়সা": 5507,
      "সম্পন্ন": 5508,
      "চলাচল": 5509,
      "কাত": 5510,
      "সিলেট": 5511,
      "ভালবাসা": 5512,
      "##্যব": 5513,
      "ঢো": 5514,
      "দৃষ্টিতে": 5515,
      "মাদক": 5516,
      "##ight": 5517,
      "##তল": 5518,
      "10": 5519,
      "মন্দির": 5520,
      "ভাবেই": 5521,
      "##বাড়ি": 5522,
      "প্রধানমন্ত্রীর": 5523,
      "##মনে": 5524,
      "মেসে": 5525,
      "কানা": 5526,
      "##াহ্ম": 5527,
      "শিশুর": 5528,
      "অ্যাড": 5529,
      "ঈদের": 5530,
      "গঠিত": 5531,
      "আশঙ্কা": 5532,
      "দায়ী": 5533,
      "সাথেই": 5534,
      "ফোনটা": 5535,
      "তালিকায়": 5536,
      "আগেও": 5537,
      "##িষ্ট": 5538,
      "মুক্তিযুদ্ধের": 5539,
      "মহা": 5540,
      "##কালের": 5541,
      "বিড়": 5542,
      "বহি": 5543,
      "স্ত্রীর": 5544,
      "##োরে": 5545,
      "মেজর": 5546,
      "পড়াশোনা": 5547,
      "দুল": 5548,
      "বাংলায়": 5549,
      "জনকে": 5550,
      "কঠোর": 5551,
      "ডাউনলোড": 5552,
      "##্রিয়া": 5553,
      "নাস্ত": 5554,
      "##র্জন": 5555,
      "হাওয়া": 5556,
      "নিলাম": 5557,
      "মডেল": 5558,
      "##র্দ": 5559,
      "অপেক্ষায়": 5560,
      "নির্যাতন": 5561,
      "##াচ্ছে": 5562,
      "সিনেম": 5563,
      "##ত্তে": 5564,
      "শুভে": 5565,
      "##বছর": 5566,
      "সমাজে": 5567,
      "##ইয়": 5568,
      "বিচারপতি": 5569,
      "##ুনে": 5570,
      "##হাট": 5571,
      "হাঁটতে": 5572,
      "ওঠা": 5573,
      "মণ": 5574,
      "বিভাগে": 5575,
      "হাইক": 5576,
      "##দেব": 5577,
      "ঈদ": 5578,
      "আপাতত": 5579,
      "দেখছে": 5580,
      "কর্মীরা": 5581,
      "অজানা": 5582,
      "আলোক": 5583,
      "সৌদি": 5584,
      "##খ্যান": 5585,
      "এভাবেই": 5586,
      "##াতক": 5587,
      "দরজার": 5588,
      "পারল": 5589,
      "এরই": 5590,
      "বিদ্যালয়": 5591,
      "##ংসা": 5592,
      "##িংয়ের": 5593,
      "প্রকৌ": 5594,
      "ব্যথা": 5595,
      "প্রশাসনের": 5596,
      "##িক্যাল": 5597,
      "##পন্থ": 5598,
      "অঞ্চলে": 5599,
      "লু": 5600,
      "প্রায়ই": 5601,
      "##ৃত্য": 5602,
      "সাইট": 5603,
      "নির্ধারিত": 5604,
      "মেয়েরা": 5605,
      "টেলিভ": 5606,
      "হোটেল": 5607,
      "লইয়া": 5608,
      "ফুটব": 5609,
      "শ্রদ্ধা": 5610,
      "রুদ্র": 5611,
      "চুপচাপ": 5612,
      "অন্তর": 5613,
      "স্ট্র": 5614,
      "বান্ধ": 5615,
      "##দর": 5616,
      "##উজ": 5617,
      "বইয়ের": 5618,
      "মর্য": 5619,
      "##য়েল": 5620,
      "বিস্ফোর": 5621,
      "he": 5622,
      "মেলা": 5623,
      "ভয়া": 5624,
      "me": 5625,
      "নারীদের": 5626,
      "##pp": 5627,
      "দাঁড়ায়": 5628,
      "অন্যের": 5629,
      "শ্রেষ্ঠ": 5630,
      "##ment": 5631,
      "সিগারেট": 5632,
      "##ওল": 5633,
      "৭০": 5634,
      "আপত্তি": 5635,
      "সিরাজ": 5636,
      "ক্রিকেটার": 5637,
      "হি": 5638,
      "নুর": 5639,
      "জেলায়": 5640,
      "মনটা": 5641,
      "পেছন": 5642,
      "##َّ": 5643,
      "##ive": 5644,
      "শারীরিক": 5645,
      "কোনদিন": 5646,
      "হয়েছিলেন": 5647,
      "সমিতির": 5648,
      "বলবেন": 5649,
      "##িখে": 5650,
      "প্রকার": 5651,
      "##উন্ড": 5652,
      "অনুষ্ঠানের": 5653,
      "সরবরাহ": 5654,
      "রাখেন": 5655,
      "চাইছে": 5656,
      "ডাই": 5657,
      "কল্পনা": 5658,
      "জাহাজ": 5659,
      "##বিন": 5660,
      "##দ্দীন": 5661,
      "প্রত্যক্ষ": 5662,
      "##দূর": 5663,
      "ফেলেছে": 5664,
      "##iv": 5665,
      "##ave": 5666,
      "তারপরে": 5667,
      "সদস্যদের": 5668,
      "মাস্টার": 5669,
      "যেনো": 5670,
      "কাজেই": 5671,
      "হয": 5672,
      "##াকি": 5673,
      "স্থাপ": 5674,
      "অব্যা": 5675,
      "ফলাফল": 5676,
      "হাও": 5677,
      "অভিযুক্ত": 5678,
      "আইনজীবী": 5679,
      "ধরেই": 5680,
      "##পো": 5681,
      "##ককে": 5682,
      "চতুর্থ": 5683,
      "আলি": 5684,
      "ইশ": 5685,
      "গিয়েছিলেন": 5686,
      "পোষ": 5687,
      "সদস্যরা": 5688,
      "##ust": 5689,
      "##স্টার": 5690,
      "উক্ত": 5691,
      "পারছেন": 5692,
      "##ard": 5693,
      "আঁচ": 5694,
      "বাসে": 5695,
      "নাম্বার": 5696,
      "মোড়": 5697,
      "##ভিড": 5698,
      "পরই": 5699,
      "অঙ্ক": 5700,
      "গ্রন্থ": 5701,
      "##তলা": 5702,
      "##ওয়ার্ক": 5703,
      "গুঁ": 5704,
      "pro": 5705,
      "করতাম": 5706,
      "##দেশে": 5707,
      "তন": 5708,
      "রাজ্যে": 5709,
      "ভয়াবহ": 5710,
      "##াবো": 5711,
      "তোরা": 5712,
      "আনার": 5713,
      "##দল": 5714,
      "সিল": 5715,
      "দাগ": 5716,
      "টিকে": 5717,
      "##সভার": 5718,
      "নৌকা": 5719,
      "তোলার": 5720,
      "##পথে": 5721,
      "বাঁধা": 5722,
      "তুর": 5723,
      "##ায়িত": 5724,
      "প্রতিবেশ": 5725,
      "##ww": 5726,
      "##টারে": 5727,
      "চিনি": 5728,
      "##ind": 5729,
      "ভাষার": 5730,
      "##নগর": 5731,
      "দাল": 5732,
      "অন্ধকারে": 5733,
      "অঞ্চল": 5734,
      "করোনাভাই": 5735,
      "##টারি": 5736,
      "##দির": 5737,
      "কাজী": 5738,
      "ঋষ": 5739,
      "##ৃঙ্খলা": 5740,
      "ইসলামী": 5741,
      "চালানো": 5742,
      "প্রতিষ্ঠা": 5743,
      "পুত": 5744,
      "হলুদ": 5745,
      "ফরি": 5746,
      "আশে": 5747,
      "##্রমে": 5748,
      "সমালোচনা": 5749,
      "##য়ায়": 5750,
      "##চ্ছিলেন": 5751,
      "কৌশল": 5752,
      "নিজেও": 5753,
      "কথাও": 5754,
      "##াস্ত্র": 5755,
      "সেখানেই": 5756,
      "শ্রীল": 5757,
      "##ঘা": 5758,
      "পারো": 5759,
      "যৌথ": 5760,
      "গল্পের": 5761,
      "কারখান": 5762,
      "কোনোদিন": 5763,
      "পশ্চিমব": 5764,
      "অভিব": 5765,
      "২০১৬": 5766,
      "##angl": 5767,
      "চ্যালে": 5768,
      "প্রেস": 5769,
      "মুখটা": 5770,
      "জন্মদিন": 5771,
      "নীলা": 5772,
      "চলতি": 5773,
      "পিছিয়ে": 5774,
      "রওনা": 5775,
      "উজ্জ্বল": 5776,
      "অঞ্চলের": 5777,
      "সহযোগিতা": 5778,
      "শব": 5779,
      "ইউনিভার্স": 5780,
      "##ere": 5781,
      "গ্রাহ": 5782,
      "দেখলো": 5783,
      "ঘটনাস্থ": 5784,
      "ভালোবাসি": 5785,
      "দেবো": 5786,
      "প্রযো": 5787,
      "০০০": 5788,
      "ঝগ": 5789,
      "##ভিত্তিক": 5790,
      "গল": 5791,
      "আমিন": 5792,
      "সেতু": 5793,
      "সই": 5794,
      "বসিয়ে": 5795,
      "ঐক্য": 5796,
      "##পাড়া": 5797,
      "ব্যবহৃত": 5798,
      "মুল": 5799,
      "##টল": 5800,
      "কিসের": 5801,
      "ব্রাহ্ম": 5802,
      "পাথ": 5803,
      "গোষ্ঠ": 5804,
      "##ুখে": 5805,
      "##ুশ": 5806,
      "শুনেছি": 5807,
      "রচনা": 5808,
      "প্রিন": 5809,
      "পড়লে": 5810,
      "আর্": 5811,
      "কহ": 5812,
      "বিদেশে": 5813,
      "আম্ম": 5814,
      "মুখ্যমন্ত্রী": 5815,
      "নিয়া": 5816,
      "হাইকোর্ট": 5817,
      "শুরুর": 5818,
      "ঘে": 5819,
      "ঘুরতে": 5820,
      "আসছি": 5821,
      "সর্বশেষ": 5822,
      "##াপুর": 5823,
      "বাংলাদেশি": 5824,
      "ঐতিহ": 5825,
      "প্রকৃতির": 5826,
      "পরীক্ষায়": 5827,
      "ছাত্রলীগের": 5828,
      "উদাহরণ": 5829,
      "ইমাম": 5830,
      "যাত্রী": 5831,
      "বাছ": 5832,
      "টাকায়": 5833,
      "মজার": 5834,
      "রিজ": 5835,
      "##ওয়ান": 5836,
      "সহজেই": 5837,
      "রাজশাহী": 5838,
      "##ীষ": 5839,
      "সোনা": 5840,
      "চ্যালেঞ্জ": 5841,
      "নারায়ণ": 5842,
      "ফেসবুকে": 5843,
      "অধি": 5844,
      "লিখিত": 5845,
      "সম্বন্ধে": 5846,
      "পরপর": 5847,
      "##শিদ": 5848,
      "##চারের": 5849,
      "উল্টো": 5850,
      "চিঠ": 5851,
      "নায়": 5852,
      "অস্থির": 5853,
      "সম্মেলন": 5854,
      "মণ্ড": 5855,
      "রপ্ত": 5856,
      "ফিরতে": 5857,
      "ইউন": 5858,
      "রাজধানী": 5859,
      "##োলার": 5860,
      "www": 5861,
      "গোলাম": 5862,
      "স্টেশন": 5863,
      "##বাচক": 5864,
      "##্রাজ": 5865,
      "কাঁপ": 5866,
      "আমেরিক": 5867,
      "##রান": 5868,
      "সৃ": 5869,
      "বিচ্ছিন্ন": 5870,
      "সায়": 5871,
      "বিকল্প": 5872,
      "##ee": 5873,
      "##ভেল": 5874,
      "go": 5875,
      "##িনিয়ার": 5876,
      "বিবেচনা": 5877,
      "সরি": 5878,
      "##দ্য": 5879,
      "ঘোর": 5880,
      "দৌড়": 5881,
      "##হাসিক": 5882,
      "##াল্ট": 5883,
      "সাংবাদিকদের": 5884,
      "অ্যাক": 5885,
      "টেন": 5886,
      "প্রাক্ত": 5887,
      "এখনই": 5888,
      "মধু": 5889,
      "আনন্দে": 5890,
      "##োক্ত": 5891,
      "জনাব": 5892,
      "প্রচণ্ড": 5893,
      "চমৎকার": 5894,
      "##ঞ্চিত": 5895,
      "শন": 5896,
      "যেদিন": 5897,
      "ইতিহাসের": 5898,
      "ষড়": 5899,
      "চাওয়া": 5900,
      "লুট": 5901,
      "গুন": 5902,
      "লক্ষ্যে": 5903,
      "টিম": 5904,
      "201": 5905,
      "পর্যবে": 5906,
      "দাবিতে": 5907,
      "সুরে": 5908,
      "পেট": 5909,
      "হেড": 5910,
      "##ফাক": 5911,
      "৫০০": 5912,
      "##ব্যাপী": 5913,
      "থাকত": 5914,
      "##ওয়ার্ড": 5915,
      "রাজনীতির": 5916,
      "##চির": 5917,
      "অনুসরণ": 5918,
      "৮০": 5919,
      "##ণ্ডে": 5920,
      "কুমিল": 5921,
      "##ার্স": 5922,
      "##বিল": 5923,
      "মন্ত্রণালয়": 5924,
      "ফাঁকা": 5925,
      "আদর": 5926,
      "বরাবর": 5927,
      "টেবিলে": 5928,
      "পড়ি": 5929,
      "কিনতে": 5930,
      "সকলে": 5931,
      "দুজনেই": 5932,
      "অনুসারে": 5933,
      "পক্ষের": 5934,
      "মনি": 5935,
      "পুরুষের": 5936,
      "জারি": 5937,
      "হতাশ": 5938,
      "তারই": 5939,
      "মিডিয়া": 5940,
      "মিত্র": 5941,
      "##্রান্ত": 5942,
      "ভদ্রলোক": 5943,
      "দ্যা": 5944,
      "চাহিদা": 5945,
      "পিছু": 5946,
      "from": 5947,
      "##ঝে": 5948,
      "##ail": 5949,
      "Ch": 5950,
      "দেখাতে": 5951,
      "ভূমিক": 5952,
      "পররাষ্ট্র": 5953,
      "সেকেন্ড": 5954,
      "অ্যাম": 5955,
      "আছ": 5956,
      "রাসূল": 5957,
      "বিবৃতি": 5958,
      "ডুবে": 5959,
      "বেজে": 5960,
      "পাঞ্জ": 5961,
      "ভূমি": 5962,
      "হয়না": 5963,
      "##ীড়": 5964,
      "ছেলেমে": 5965,
      "স্বপ্নের": 5966,
      "জগত": 5967,
      "কল্প": 5968,
      "ব্যাটসম্যান": 5969,
      "নিবন্ধ": 5970,
      "na": 5971,
      "ম্যাচের": 5972,
      "##ুকের": 5973,
      "চেক": 5974,
      "রিয়া": 5975,
      "করিনি": 5976,
      "##চ্ছন্ন": 5977,
      "নাড়": 5978,
      "টুকরো": 5979,
      "প্রাক্তন": 5980,
      "##ছিলে": 5981,
      "শ্বাস": 5982,
      "একক": 5983,
      "আড্ডা": 5984,
      "##পদ": 5985,
      "##াজি": 5986,
      "বিস্তারিত": 5987,
      "লক্ষ্ম": 5988,
      "প্রতিনিধ": 5989,
      "পানিতে": 5990,
      "স্বীকৃতি": 5991,
      "নার্স": 5992,
      "ছোটো": 5993,
      "মোস্ত": 5994,
      "##াল্লাহ": 5995,
      "ফ্রান্স": 5996,
      "উনার": 5997,
      "রাখি": 5998,
      "##২০": 5999,
      "হারা": 6000,
      "##জিৎ": 6001,
      "গরু": 6002,
      "হোম": 6003,
      "সকলেই": 6004,
      "টিউন": 6005,
      "জের": 6006,
      "মৌল": 6007,
      "করিম": 6008,
      "##রুম": 6009,
      "শিরোন": 6010,
      "খ্র": 6011,
      "ওঠার": 6012,
      "পরিকল্প": 6013,
      "প্যার": 6014,
      "ফো": 6015,
      "##our": 6016,
      "##বেসে": 6017,
      "শিক্ষার": 6018,
      "##সুল": 6019,
      "বসন্ত": 6020,
      "জিম": 6021,
      "নির্বাচনী": 6022,
      "##ামুটি": 6023,
      "সংখ্য": 6024,
      "##্তিক": 6025,
      "##ric": 6026,
      "ধূ": 6027,
      "বেলায়": 6028,
      "চালাতে": 6029,
      "করিল": 6030,
      "জঙ্গি": 6031,
      "নরম": 6032,
      "মুন": 6033,
      "ক্রমশ": 6034,
      "তাকা": 6035,
      "নৈ": 6036,
      "জানিনা": 6037,
      "হযরত": 6038,
      "##ন্যা": 6039,
      "গোয়েন্দা": 6040,
      "##হী": 6041,
      "অপমান": 6042,
      "সম্পাদ": 6043,
      "প্রোগ": 6044,
      "৪৮": 6045,
      "##ত্যাগ": 6046,
      "চিহ্নিত": 6047,
      "খানের": 6048,
      "শ্বশুর": 6049,
      "নীরব": 6050,
      "রাষ্ট্রপতি": 6051,
      "##চনায়": 6052,
      "ইন্দ": 6053,
      "##্যাং": 6054,
      "চেয়েও": 6055,
      "##ঘরে": 6056,
      "দশমিক": 6057,
      "চীনের": 6058,
      "##ফাজ": 6059,
      "##াইলে": 6060,
      "##ack": 6061,
      "##ঙ্কের": 6062,
      "লেগেছে": 6063,
      "যুগে": 6064,
      "ট্রাক": 6065,
      "ঢে": 6066,
      "নির্ধারণ": 6067,
      "##end": 6068,
      "##ীক্ষ": 6069,
      "বুড়ো": 6070,
      "পরিচালিত": 6071,
      "যতই": 6072,
      "##াইজ": 6073,
      "##য়ং": 6074,
      "মন্ত্রণালয়ের": 6075,
      "সাকিব": 6076,
      "##ধারন": 6077,
      "সিস্টেম": 6078,
      "হেরে": 6079,
      "এলাক": 6080,
      "প্রেমে": 6081,
      "আমির": 6082,
      "##ুষ্ঠানিক": 6083,
      "দৃঢ়": 6084,
      "কংগ্রে": 6085,
      "তৃণমূ": 6086,
      "ইত্তে": 6087,
      "কড়া": 6088,
      "এবারের": 6089,
      "অধীনে": 6090,
      "প্রজাত": 6091,
      "##ভো": 6092,
      "আসেনি": 6093,
      "##িকর": 6094,
      "মুক্তিযোদ্ধ": 6095,
      "মৃ": 6096,
      "ধরণের": 6097,
      "মূর্তি": 6098,
      "##শ্রুতি": 6099,
      "গণমাধ্য": 6100,
      "##কেন্দ্র": 6101,
      "খ্রিস্ট": 6102,
      "ঢাক": 6103,
      "পিস": 6104,
      "ছো": 6105,
      "##াউন্ড": 6106,
      "নিচু": 6107,
      "নিঃস": 6108,
      "##য়নে": 6109,
      "আমেরিকা": 6110,
      "ব্রাজ": 6111,
      "প্রকল্পের": 6112,
      "ছু": 6113,
      "প্রিয়া": 6114,
      "কবিতার": 6115,
      "চর্": 6116,
      "আনোয়ার": 6117,
      "সভাপত": 6118,
      "দাঁড়া": 6119,
      "ভূত": 6120,
      "কৈ": 6121,
      "আলোয়": 6122,
      "স্বে": 6123,
      "##ast": 6124,
      "##ভূমি": 6125,
      "##কারের": 6126,
      "শুধুই": 6127,
      "মাইক্র": 6128,
      "ফু": 6129,
      "চাইতে": 6130,
      "উচ্চার": 6131,
      "নিউইয়": 6132,
      "বেড়া": 6133,
      "সংযোগ": 6134,
      "উপভোগ": 6135,
      "গাজী": 6136,
      "কাব্য": 6137,
      "##পাড়": 6138,
      "অনলাইন": 6139,
      "আসিয়া": 6140,
      "##কু": 6141,
      "আসনে": 6142,
      "পরবর্ত": 6143,
      "পাহাড়ের": 6144,
      "##বীর": 6145,
      "##াবদ্ধ": 6146,
      "ঐতিহাসিক": 6147,
      "##লাইনে": 6148,
      "সুন্দরী": 6149,
      "প্রয়োজনে": 6150,
      "ছবিটি": 6151,
      "চ্যানেল": 6152,
      "মতামত": 6153,
      "##তাই": 6154,
      "##ষ্টার": 6155,
      "টিকিট": 6156,
      "##ইউ": 6157,
      "ভাবি": 6158,
      "সেক": 6159,
      "##কায়": 6160,
      "কমিশনের": 6161,
      "রবিবার": 6162,
      "আনে": 6163,
      "শত্রু": 6164,
      "অধিদ": 6165,
      "সক্রিয়": 6166,
      "যেতেই": 6167,
      "কেন্দ্রে": 6168,
      "নেটওয়ার্ক": 6169,
      "##পেক্ষ": 6170,
      "##র্ধ্ব": 6171,
      "পরিস্থিতিতে": 6172,
      "রানা": 6173,
      "নির্মা": 6174,
      "মহিল": 6175,
      "গুজ": 6176,
      "##স্র": 6177,
      "ম্যাড": 6178,
      "হ্যার": 6179,
      "বোমা": 6180,
      "টেবিল": 6181,
      "তারিখে": 6182,
      "নিয়েও": 6183,
      "##সম্প": 6184,
      "অনন্ত": 6185,
      "##ear": 6186,
      "কোম্পানির": 6187,
      "wh": 6188,
      "করছিলেন": 6189,
      "##শনে": 6190,
      "মোটামুটি": 6191,
      "ব্যবহারের": 6192,
      "ভোটার": 6193,
      "দূরত্ব": 6194,
      "আরেকটা": 6195,
      "মুচ": 6196,
      "২০১২": 6197,
      "##বারেই": 6198,
      "নিত্য": 6199,
      "মিনিটে": 6200,
      "##েন্টের": 6201,
      "মোটা": 6202,
      "মুদ্র": 6203,
      "মিশে": 6204,
      "তোদের": 6205,
      "উদ্যোগে": 6206,
      "##োম": 6207,
      "নিচ্ছে": 6208,
      "##nt": 6209,
      "##pt": 6210,
      "রোদ": 6211,
      "চালায়": 6212,
      "বাসার": 6213,
      "##হির": 6214,
      "##ue": 6215,
      "ডিজিট": 6216,
      "হইলে": 6217,
      "##টেলে": 6218,
      "##ff": 6219,
      "##ৃশ্য": 6220,
      "খাট": 6221,
      "পিছন": 6222,
      "##ংকর": 6223,
      "দাড়িয়ে": 6224,
      "মেয়েটির": 6225,
      "##আন": 6226,
      "##খালী": 6227,
      "##বাদের": 6228,
      "সঙ্গী": 6229,
      "ইঙ্গ": 6230,
      "মৃদু": 6231,
      "ইনস্টিটি": 6232,
      "##য়িক": 6233,
      "অবরোধ": 6234,
      "প্রের": 6235,
      "শিখে": 6236,
      "প্রচলিত": 6237,
      "পেন": 6238,
      "##ন্সি": 6239,
      "কূ": 6240,
      "দয়া": 6241,
      "বরাদ্দ": 6242,
      "শিল": 6243,
      "রোগী": 6244,
      "কেউই": 6245,
      "জিজ্ঞাস": 6246,
      "আড়ালে": 6247,
      "সদ্য": 6248,
      "ধারাবাহিক": 6249,
      "১৯৩": 6250,
      "পৌরস": 6251,
      "##ure": 6252,
      "##ম্ভীর": 6253,
      "##হন": 6254,
      "কাঁধে": 6255,
      "পরবর্তীতে": 6256,
      "২০১১": 6257,
      "বাগান": 6258,
      "ইতিহাসে": 6259,
      "পথের": 6260,
      "জয়ের": 6261,
      "আফগান": 6262,
      "##াকারী": 6263,
      "বুদ্ধি": 6264,
      "##িজের": 6265,
      "বিজ্ঞপ্তি": 6266,
      "বলেও": 6267,
      "উপন্যাস": 6268,
      "সহিত": 6269,
      "বুঝলাম": 6270,
      "কৃষক": 6271,
      "প্রদর্শ": 6272,
      "বাবুর": 6273,
      "পরা": 6274,
      "##বণ": 6275,
      "মমতা": 6276,
      "সন্ধ্য": 6277,
      "সফটওয়্যার": 6278,
      "শরণ": 6279,
      "সাফল্য": 6280,
      "##িতের": 6281,
      "জেলে": 6282,
      "ফাইন": 6283,
      "মেয়েটার": 6284,
      "মঞ্জ": 6285,
      "চড়": 6286,
      "##ােগ": 6287,
      "অবসর": 6288,
      "নিলেন": 6289,
      "ভবিষ্যৎ": 6290,
      "অধিদপ্ত": 6291,
      "##ওয়াই": 6292,
      "সার্ভিস": 6293,
      "ex": 6294,
      "##াতন": 6295,
      "পিক": 6296,
      "একটাই": 6297,
      "তৎকালীন": 6298,
      "রফিক": 6299,
      "##বেলায়": 6300,
      "কন্ট": 6301,
      "শাশ": 6302,
      "##ord": 6303,
      "প্রসঙ্গ": 6304,
      "পাকিস্তানে": 6305,
      "সরল": 6306,
      "ট্রাই": 6307,
      "##কত": 6308,
      "প্রতিক্রিয়া": 6309,
      "রাজার": 6310,
      "০১": 6311,
      "##esh": 6312,
      "ইয়ে": 6313,
      "##শিক্ষ": 6314,
      "হয়েছি": 6315,
      "পারত": 6316,
      "বসতে": 6317,
      "উপজেলায়": 6318,
      "প্রদর্শন": 6319,
      "স্বর্ণ": 6320,
      "বার্স": 6321,
      "at": 6322,
      "জার্মান": 6323,
      "##র্নি": 6324,
      "তি": 6325,
      "ব্রহ": 6326,
      "শিক": 6327,
      "সাগ": 6328,
      "৩৬": 6329,
      "পদার্থ": 6330,
      "##ine": 6331,
      "সাম্রাজ": 6332,
      "সালাম": 6333,
      "##ধন": 6334,
      "জবাবে": 6335,
      "দ্বি": 6336,
      "##ার্থী": 6337,
      "অসুবিধা": 6338,
      "তিত": 6339,
      "এড়িয়ে": 6340,
      "সংখ": 6341,
      "মতি": 6342,
      "পাতায়": 6343,
      "কৌত": 6344,
      "কক্স": 6345,
      "##িমার": 6346,
      "##are": 6347,
      "এমনই": 6348,
      "পিঠ": 6349,
      "pr": 6350,
      "প্রাণী": 6351,
      "বিস": 6352,
      "##ত্রের": 6353,
      "বিশ্বে": 6354,
      "##ঙ্গি": 6355,
      "##চালক": 6356,
      "শুরুতে": 6357,
      "##্বি": 6358,
      "কাশ্ম": 6359,
      "দাবী": 6360,
      "রকমের": 6361,
      "##যুক্তির": 6362,
      "##মাস": 6363,
      "গিয়েছিলাম": 6364,
      "বন্দ্য": 6365,
      "পারিবার": 6366,
      "মুম্ব": 6367,
      "দীর্ঘদিন": 6368,
      "##মী": 6369,
      "নাগাদ": 6370,
      "কিছুর": 6371,
      "হাফ": 6372,
      "ছিন": 6373,
      "পাচ্ছি": 6374,
      "বিষয়ক": 6375,
      "আসলেই": 6376,
      "##য়ক": 6377,
      "আসাম": 6378,
      "উল্লেখযোগ্য": 6379,
      "মাইল": 6380,
      "মাঝখানে": 6381,
      "৩৩": 6382,
      "কাজটা": 6383,
      "##ভাস": 6384,
      "আঁক": 6385,
      "##জনা": 6386,
      "আনুষ্ঠানিক": 6387,
      "কর্তব্য": 6388,
      "কেজি": 6389,
      "উত্তরে": 6390,
      "ঝগড়া": 6391,
      "পাট": 6392,
      "##ওয়ালা": 6393,
      "ওহ": 6394,
      "একজনের": 6395,
      "মিথ্যে": 6396,
      "একেবারেই": 6397,
      "গিয়া": 6398,
      "মল": 6399,
      "তলায়": 6400,
      "জামা": 6401,
      "শনাক্ত": 6402,
      "ইত্তেফাক": 6403,
      "##aj": 6404,
      "সরকারকে": 6405,
      "ভোটের": 6406,
      "সাপ": 6407,
      "##ঙ্কে": 6408,
      "চাও": 6409,
      "ক্যামেরা": 6410,
      "দুনি": 6411,
      "শাখা": 6412,
      "##থের": 6413,
      "কাকে": 6414,
      "ফুর": 6415,
      "সময়ই": 6416,
      "ব্লগে": 6417,
      "Th": 6418,
      "কেন্দ্রের": 6419,
      "ভরসা": 6420,
      "শাসক": 6421,
      "শুভ্র": 6422,
      "প্রতিবেদনে": 6423,
      "##ওর": 6424,
      "বড্ড": 6425,
      "জ্বর": 6426,
      "চায়ের": 6427,
      "##খো": 6428,
      "শোক": 6429,
      "প্রচে": 6430,
      "প্রেক্ষ": 6431,
      "সম্পর্কের": 6432,
      "মুক্তির": 6433,
      "সবে": 6434,
      "সফর": 6435,
      "চিনতে": 6436,
      "##own": 6437,
      "বরিশ": 6438,
      "প্রতীক": 6439,
      "উঠবে": 6440,
      "##শ্বর": 6441,
      "হইয়াছে": 6442,
      "পুনরায়": 6443,
      "শব্দের": 6444,
      "দফত": 6445,
      "সশ": 6446,
      "##ুদা": 6447,
      "##রেন্দ্র": 6448,
      "200": 6449,
      "মিটার": 6450,
      "ডুব": 6451,
      "করলেই": 6452,
      "##হাতে": 6453,
      "##ান্ট": 6454,
      "রাষ্ট্রের": 6455,
      "আমিই": 6456,
      "##চুর": 6457,
      "প্রশংসা": 6458,
      "তারপরও": 6459,
      "ছাড়িয়ে": 6460,
      "ছেলেটি": 6461,
      "##েদ": 6462,
      "বহন": 6463,
      "অনুপ্র": 6464,
      "##েগ": 6465,
      "##স্বর": 6466,
      "পঞ্চায়ে": 6467,
      "পার্থক্য": 6468,
      "মিত": 6469,
      "প্রচন্ড": 6470,
      "ভবিষ্যতে": 6471,
      "##ূন": 6472,
      "##হারের": 6473,
      "স্বয়ং": 6474,
      "বেড়াতে": 6475,
      "মিয়ান": 6476,
      "মোদী": 6477,
      "বিজেপির": 6478,
      "ফলো": 6479,
      "তৎপর": 6480,
      "বন্ধুত্ব": 6481,
      "কন্": 6482,
      "ঝুঁকি": 6483,
      "ডিজিটাল": 6484,
      "দাঁত": 6485,
      "আড়াই": 6486,
      "ডিপ": 6487,
      "ক্ষোভ": 6488,
      "বিকাশ": 6489,
      "কর্তৃপক্ষের": 6490,
      "##এই": 6491,
      "কবর": 6492,
      "##হাত": 6493,
      "ইয়াহ": 6494,
      "##মনসিং": 6495,
      "অন্তর্ভ": 6496,
      "ঠোঁট": 6497,
      "##ook": 6498,
      "কফি": 6499,
      "ঝামেলা": 6500,
      "ধর্ষণ": 6501,
      "was": 6502,
      "ইজ": 6503,
      "বিশিষ্ট": 6504,
      "হোটেলে": 6505,
      "##শাখ": 6506,
      "অনুমোদন": 6507,
      "বন্ধুরা": 6508,
      "##দ্বন্দ্ব": 6509,
      "চারি": 6510,
      "সৌন্দর্য": 6511,
      "সাজানো": 6512,
      "##শক্তি": 6513,
      "ছাড়াই": 6514,
      "##ধ্যেই": 6515,
      "##চনার": 6516,
      "ওয়াস": 6517,
      "অনেকদিন": 6518,
      "##যুদ্ধ": 6519,
      "##ঙা": 6520,
      "জামায়াত": 6521,
      "অব্যাহত": 6522,
      "৯০": 6523,
      "২০০৯": 6524,
      "সিদ্দ": 6525,
      "আবাস": 6526,
      "ফরিদ": 6527,
      "সিপি": 6528,
      "##ক্ষণের": 6529,
      "এসেছিলেন": 6530,
      "সমগ্র": 6531,
      "পায়নি": 6532,
      "তৃণমূলের": 6533,
      "##ies": 6534,
      "##েষ্ঠ": 6535,
      "শার্ট": 6536,
      "##ধর্ম": 6537,
      "উন্নতি": 6538,
      "বোর্ডের": 6539,
      "বজায়": 6540,
      "খাবারের": 6541,
      "স্ক্র": 6542,
      "ধোঁ": 6543,
      "##ভূম": 6544,
      "দপ্ত": 6545,
      "হাতটা": 6546,
      "পতাকা": 6547,
      "ময়মনসিং": 6548,
      "আলাইহি": 6549,
      "অস্ট্রেলিয়া": 6550,
      "ঠেলে": 6551,
      "##স্থায়": 6552,
      "ষড়যন্ত্র": 6553,
      "হুমায়": 6554,
      "ভাইয়া": 6555,
      "##েন্টে": 6556,
      "ব্যবস্থাপনা": 6557,
      "পারফ": 6558,
      "##জনকে": 6559,
      "সেনাবাহিনীর": 6560,
      "রায়ের": 6561,
      "ঘুরিয়ে": 6562,
      "মাতৃ": 6563,
      "মার্": 6564,
      "প্রফ": 6565,
      "##োনি": 6566,
      "##াদান": 6567,
      "পারিবারিক": 6568,
      "গার্ড": 6569,
      "স্বরে": 6570,
      "সেনাবাহিনী": 6571,
      "পিত": 6572,
      "সঙ্গীত": 6573,
      "##াজ্ঞ": 6574,
      "##রাফ": 6575,
      "টুর": 6576,
      "উপদে": 6577,
      "##ake": 6578,
      "লোভ": 6579,
      "##ৃতা": 6580,
      "প্রতিপক্ষ": 6581,
      "অভ্যন্ত": 6582,
      "শতাব্দ": 6583,
      "আর্ম": 6584,
      "পাঁ": 6585,
      "##ঙ্ঘ": 6586,
      "অভিভাব": 6587,
      "##্ফ": 6588,
      "##াবের": 6589,
      "বাড়ী": 6590,
      "আওতায়": 6591,
      "গোপ": 6592,
      "শিবির": 6593,
      "##্যান্ডের": 6594,
      "##হল": 6595,
      "রানের": 6596,
      "##ব্যব": 6597,
      "জন্": 6598,
      "গম্ভীর": 6599,
      "বন্য": 6600,
      "সাহিত": 6601,
      "স্বাক্ষ": 6602,
      "প্রেমিক": 6603,
      "একের": 6604,
      "##গোল": 6605,
      "##এসসি": 6606,
      "ক্ষতিগ্রস্ত": 6607,
      "ব্যাটিং": 6608,
      "ইঞ্জিনিয়ার": 6609,
      "তারকা": 6610,
      "ক্ষমতার": 6611,
      "এজন্য": 6612,
      "বাধ": 6613,
      "ওস": 6614,
      "হরত": 6615,
      "সেও": 6616,
      "অভ্যাস": 6617,
      "ভাঙা": 6618,
      "কায়": 6619,
      "##টস": 6620,
      "ঐতিহ্য": 6621,
      "রোড": 6622,
      "মুক্তিযোদ্ধা": 6623,
      "থাকুন": 6624,
      "সরকারী": 6625,
      "লিগ": 6626,
      "পাঁচটি": 6627,
      "অন্যদের": 6628,
      "পরিস্থিতির": 6629,
      "৩৪": 6630,
      "বসু": 6631,
      "ত্রি": 6632,
      "##োরা": 6633,
      "৭১": 6634,
      "ক্লা": 6635,
      "কোনাে": 6636,
      "##শায়": 6637,
      "প্রাকৃতিক": 6638,
      "গুরুতর": 6639,
      "##াল্লাহু": 6640,
      "##চ্ছিলো": 6641,
      "২০১০": 6642,
      "ইবনে": 6643,
      "হত্যাকা": 6644,
      "টপ": 6645,
      "অংশে": 6646,
      "ক্যাপ্ট": 6647,
      "##ভিয়ে": 6648,
      "##িড": 6649,
      "পাড়ার": 6650,
      "##টিস": 6651,
      "দেখবেন": 6652,
      "মনোযোগ": 6653,
      "দেশটির": 6654,
      "##ওলানা": 6655,
      "উদ্বোধন": 6656,
      "তির": 6657,
      "##ite": 6658,
      "##এব": 6659,
      "চরিত": 6660,
      "ইয়ার": 6661,
      "ওয়েবসাইট": 6662,
      "সত": 6663,
      "আলোচনায়": 6664,
      "যুক্তরাজ": 6665,
      "দলকে": 6666,
      "জ্বলে": 6667,
      "উইল": 6668,
      "রানে": 6669,
      "দুষ্ট": 6670,
      "##রণে": 6671,
      "আলোচনার": 6672,
      "চট্টগ্রামের": 6673,
      "পড়লাম": 6674,
      "কৌশ": 6675,
      "গুগল": 6676,
      "এতটা": 6677,
      "পড়েছিল": 6678,
      "খেলায়": 6679,
      "যতটা": 6680,
      "বোনের": 6681,
      "বাড়তি": 6682,
      "দেখবে": 6683,
      "নগরের": 6684,
      "চেঁচ": 6685,
      "##ial": 6686,
      "আশায়": 6687,
      "আনন্দের": 6688,
      "সেটাও": 6689,
      "সড়কের": 6690,
      "খুঁজতে": 6691,
      "অবদান": 6692,
      "বাজারের": 6693,
      "##ell": 6694,
      "12": 6695,
      "আবহা": 6696,
      "পেলেন": 6697,
      "কার্যালয়ে": 6698,
      "দেয়নি": 6699,
      "২০০৮": 6700,
      "##তুল": 6701,
      "জানালা": 6702,
      "আক্রম": 6703,
      "##গাছ": 6704,
      "##নকে": 6705,
      "##মতে": 6706,
      "ঢেউ": 6707,
      "কথাবার": 6708,
      "অবধি": 6709,
      "হয়েই": 6710,
      "##দেহ": 6711,
      "সাম্প্রতিক": 6712,
      "ঘাড়": 6713,
      "কারাগারে": 6714,
      "বৈশিষ্ট": 6715,
      "ছাত্রী": 6716,
      "ফ্রি": 6717,
      "##াপরাধ": 6718,
      "তুম": 6719,
      "রক্তের": 6720,
      "অবস্থার": 6721,
      "স্বল্প": 6722,
      "##ফো": 6723,
      "ফোর": 6724,
      "আয়োজিত": 6725,
      "নানান": 6726,
      "বক্স": 6727,
      "হয়েছিলো": 6728,
      "অ্যাকা": 6729,
      "বেয়ে": 6730,
      "##রিদ্র": 6731,
      "বেন": 6732,
      "ঘনিষ্ঠ": 6733,
      "##াপতি": 6734,
      "ফেলল": 6735,
      "কল্যাণ": 6736,
      "##ile": 6737,
      "বানানো": 6738,
      "##িম্প": 6739,
      "বারান্দায়": 6740,
      "ছাগ": 6741,
      "Bangl": 6742,
      "পৃথক": 6743,
      "শরী": 6744,
      "##ome": 6745,
      "##শাদ": 6746,
      "শুভেচ্ছা": 6747,
      "##কারীরা": 6748,
      "##জ্ঞা": 6749,
      "পরস্প": 6750,
      "বদল": 6751,
      "আব্দুল": 6752,
      "৩৭": 6753,
      "র্যাব": 6754,
      "গণতান্ত্রিক": 6755,
      "তোলে": 6756,
      "জিয়ার": 6757,
      "চামচ": 6758,
      "রোমান": 6759,
      "শয়ত": 6760,
      "লিংক": 6761,
      "##মানুষ": 6762,
      "##কাতে": 6763,
      "##ানু": 6764,
      "কর্মকা": 6765,
      "##পূর্ব": 6766,
      "অর্ধেক": 6767,
      "##কৃত": 6768,
      "করিস": 6769,
      "সূত্রের": 6770,
      "বঙ্গবন্ধুর": 6771,
      "অ্যান": 6772,
      "ওয়েব": 6773,
      "##তিষ্ঠ": 6774,
      "আমেরিকান": 6775,
      "মেট্র": 6776,
      "ছেলেদের": 6777,
      "##ame": 6778,
      "##ক্ষেত্রে": 6779,
      "সম্র": 6780,
      "ঢুকতে": 6781,
      "##ঁড়ে": 6782,
      "২০১৭": 6783,
      "##ণ্ডা": 6784,
      "শ্রেণির": 6785,
      "শক্তির": 6786,
      "মহানগর": 6787,
      "অগ্নি": 6788,
      "will": 6789,
      "##লেম": 6790,
      "উপযুক্ত": 6791,
      "প্রভৃতি": 6792,
      "শাল": 6793,
      "##মিত": 6794,
      "##ish": 6795,
      "থাকতো": 6796,
      "ছাদে": 6797,
      "##ড়ানো": 6798,
      "##ংসের": 6799,
      "নামাজ": 6800,
      "যুদ্ধাপরাধ": 6801,
      "##িসা": 6802,
      "স্বরাষ্ট্র": 6803,
      "##ক্ল": 6804,
      "##তারা": 6805,
      "দুদ": 6806,
      "শ্রাব": 6807,
      "জগতে": 6808,
      "##নালে": 6809,
      "##্নাম": 6810,
      "এছাড়াও": 6811,
      "নিরাপত্তার": 6812,
      "##িশা": 6813,
      "কর্নে": 6814,
      "প্রার্থনা": 6815,
      "অত্যাচার": 6816,
      "##আপ": 6817,
      "সম্পত্তি": 6818,
      "##ফিল": 6819,
      "গুপ্ত": 6820,
      "ডিগ্রি": 6821,
      "ওদিকে": 6822,
      "অন্তর্ভুক্ত": 6823,
      "নিলে": 6824,
      "অনুসন্ধ": 6825,
      "স্বাদ": 6826,
      "হচ্ছেন": 6827,
      "দরজায়": 6828,
      "বলতো": 6829,
      "দর্শন": 6830,
      "##কান": 6831,
      "বিনিময়ে": 6832,
      "সৌরভ": 6833,
      "এন্ড": 6834,
      "আরিফ": 6835,
      "লাগানো": 6836,
      "ভাবলাম": 6837,
      "দফা": 6838,
      "পাকা": 6839,
      "এখানকার": 6840,
      "রিকশা": 6841,
      "ar": 6842,
      "আইনে": 6843,
      "জোড়া": 6844,
      "##তনে": 6845,
      "##াকাল": 6846,
      "চলার": 6847,
      "##্রু": 6848,
      "কারখানা": 6849,
      "দেখায়": 6850,
      "হাদী": 6851,
      "পদ্ম": 6852,
      "##ৈত": 6853,
      "কপ": 6854,
      "নির্মিত": 6855,
      "##বিরোধী": 6856,
      "পছন্দের": 6857,
      "রয়": 6858,
      "##্লার": 6859,
      "##ছাত্র": 6860,
      "##বুব": 6861,
      "পাড়": 6862,
      "সন্তু": 6863,
      "##সুর": 6864,
      "##শাস": 6865,
      "সুখের": 6866,
      "অজ্ঞ": 6867,
      "যাতায়": 6868,
      "বেশিরভাগ": 6869,
      "উঠলেন": 6870,
      "ভাইরাস": 6871,
      "কর্মকর্তারা": 6872,
      "##ধানের": 6873,
      "##ভির": 6874,
      "মিলি": 6875,
      "মুজিবুর": 6876,
      "সংকট": 6877,
      "মানুষদের": 6878,
      "কংগ্রেসের": 6879,
      "বিদ্যালয়ের": 6880,
      "মানবা": 6881,
      "##াদেব": 6882,
      "চলুন": 6883,
      "কালে": 6884,
      "ধুল": 6885,
      "অনুবাদ": 6886,
      "##পক": 6887,
      "পাল্টা": 6888,
      "স্লো": 6889,
      "বাঙ্গ": 6890,
      "নূ": 6891,
      "##েজ": 6892,
      "প্রযুক্তির": 6893,
      "পূজা": 6894,
      "শী": 6895,
      "জানিস": 6896,
      "একান্ত": 6897,
      "##ড়িতে": 6898,
      "মানিক": 6899,
      "সমাবেশ": 6900,
      "পাখির": 6901,
      "মাধ্যমিক": 6902,
      "স্বেচ্ছ": 6903,
      "##বস্ত": 6904,
      "ক্যামের": 6905,
      "ন্য": 6906,
      "দুর্ঘটনা": 6907,
      "মাশ": 6908,
      "##যথ": 6909,
      "##ালীর": 6910,
      "বাতাসে": 6911,
      "this": 6912,
      "খ্যাত": 6913,
      "##ক্ষের": 6914,
      "##দায়িক": 6915,
      "বাদে": 6916,
      "##বয়": 6917,
      "সন্ধান": 6918,
      "##রার": 6919,
      "করবার": 6920,
      "সিদ্দিক": 6921,
      "##্বিত": 6922,
      "##পন্থী": 6923,
      "মানবাধিকার": 6924,
      "বলেছিলাম": 6925,
      "সল": 6926,
      "##টেও": 6927,
      "অভিনেতা": 6928,
      "প্রতিদ্বন্দ্ব": 6929,
      "গড়িয়ে": 6930,
      "উঠেছিল": 6931,
      "জানতাম": 6932,
      "মক": 6933,
      "আঙ্গ": 6934,
      "মাঠের": 6935,
      "##কী": 6936,
      "অনলাইনে": 6937,
      "##কর্মী": 6938,
      "ফাঁকে": 6939,
      "সামগ্র": 6940,
      "র্যা": 6941,
      "ডল": 6942,
      "উড়িয়ে": 6943,
      "ab": 6944,
      "আছো": 6945,
      "##ানীর": 6946,
      "সুপ্রিম": 6947,
      "অতএব": 6948,
      "পুড়ে": 6949,
      "##ভিল": 6950,
      "উদ্দেশে": 6951,
      "##োষ্ঠ": 6952,
      "##িদ্র": 6953,
      "ইঙ্গিত": 6954,
      "বেঞ্চ": 6955,
      "মুহাম্মদ": 6956,
      "হেফাজ": 6957,
      "জাফ": 6958,
      "দুর্দ": 6959,
      "ঘুমের": 6960,
      "##ব্ল": 6961,
      "##পুরুষ": 6962,
      "##াবাদী": 6963,
      "উপলব্ধ": 6964,
      "##দানি": 6965,
      "##এর": 6966,
      "রেডিও": 6967,
      "ওয়েস্ট": 6968,
      "দর্শক": 6969,
      "মিলিয়ন": 6970,
      "ফারুক": 6971,
      "ক্যাপ্টেন": 6972,
      "ইন্স": 6973,
      "##জুর": 6974,
      "##টিও": 6975,
      "নেতার": 6976,
      "এইভাবে": 6977,
      "গলার": 6978,
      "ভালোবাসে": 6979,
      "all": 6980,
      "মিজ": 6981,
      "আলা": 6982,
      "অচেনা": 6983,
      "তত্ত্বাব": 6984,
      "বগু": 6985,
      "আক্ত": 6986,
      "থাকছে": 6987,
      "মেঘের": 6988,
      "ইল": 6989,
      "যত্ন": 6990,
      "##মুক্ত": 6991,
      "অভিমান": 6992,
      "ধরার": 6993,
      "ভবনের": 6994,
      "কয়েকদিন": 6995,
      "টেলিফ": 6996,
      "your": 6997,
      "ইলেক": 6998,
      "##জুড়ে": 6999,
      "অক্স": 7000,
      "খাতে": 7001,
      "এদিক": 7002,
      "কেড়ে": 7003,
      "ক্রমে": 7004,
      "গোলাপ": 7005,
      "৩৮": 7006,
      "have": 7007,
      "অর্থে": 7008,
      "মাহবুব": 7009,
      "##ary": 7010,
      "মতই": 7011,
      "উল্ল": 7012,
      "রাখবে": 7013,
      "প্রাপ": 7014,
      "11": 7015,
      "##ন্না": 7016,
      "একদল": 7017,
      "পারলো": 7018,
      "কেনা": 7019,
      "৫৫": 7020,
      "একেক": 7021,
      "বিচারের": 7022,
      "কর্নেল": 7023,
      "বিজ্ঞাপন": 7024,
      "সাহায্যে": 7025,
      "কোহ": 7026,
      "##াসীন": 7027,
      "##েক্টর": 7028,
      "কেহ": 7029,
      "বলিউ": 7030,
      "শব্দে": 7031,
      "##জেক্ট": 7032,
      "বিপর্য": 7033,
      "বেকার": 7034,
      "পুষ": 7035,
      "বেহ": 7036,
      "জরিম": 7037,
      "আজিজ": 7038,
      "শ্রমিকদের": 7039,
      "যাবত": 7040,
      "ভিজে": 7041,
      "রিভ": 7042,
      "দোকানের": 7043,
      "টেকটিউনস": 7044,
      "##ভুক্ত": 7045,
      "প্রতার": 7046,
      "সামলে": 7047,
      "জমির": 7048,
      "ওয়াশ": 7049,
      "মহার": 7050,
      "হুঁ": 7051,
      "##ণ্ডিত": 7052,
      "##ছিয়ে": 7053,
      "ছুঁয়ে": 7054,
      "এটাও": 7055,
      "করাতে": 7056,
      "শিক্ষার্থীরা": 7057,
      "হিসেব": 7058,
      "পাঠক": 7059,
      "বৌদ্ধ": 7060,
      "সমৃদ্ধ": 7061,
      "নিষ্ঠ": 7062,
      "সঞ্জ": 7063,
      "শেষের": 7064,
      "##সাহ": 7065,
      "ঠেক": 7066,
      "##ানকে": 7067,
      "গ্যাল": 7068,
      "মধ্যেও": 7069,
      "অবহ": 7070,
      "সঙ্গেই": 7071,
      "ফ্রেন্ড": 7072,
      "##রন": 7073,
      "বোকা": 7074,
      "##ুলি": 7075,
      "গায়ের": 7076,
      "যাওয়ায়": 7077,
      "##গিত": 7078,
      "মাধ্যম": 7079,
      "জাহাঙ্গ": 7080,
      "সুদ": 7081,
      "পাবলিক": 7082,
      "কার্যালয়": 7083,
      "##পিয়ে": 7084,
      "প্রোগ্রাম": 7085,
      "মস্তি": 7086,
      "##মন্ড": 7087,
      "পোষ্ট": 7088,
      "ক্লাসে": 7089,
      "জা": 7090,
      "তিনিই": 7091,
      "বিতরণ": 7092,
      "৪২": 7093,
      "গোলা": 7094,
      "রেখেছেন": 7095,
      "শুটিং": 7096,
      "ভু": 7097,
      "##মোহ": 7098,
      "##চ্ছিলাম": 7099,
      "##্রেট": 7100,
      "##ুকুম": 7101,
      "মেসেজ": 7102,
      "প্রতিশ্রুতি": 7103,
      "আতঙ্ক": 7104,
      "উদ্বেগ": 7105,
      "বসা": 7106,
      "বাছাই": 7107,
      "দ্বীপ": 7108,
      "বৈশাখ": 7109,
      "##য়াজ": 7110,
      "ট্যাক্স": 7111,
      "রাখুন": 7112,
      "গির": 7113,
      "পারতাম": 7114,
      "গেট": 7115,
      "বাথর": 7116,
      "নিরী": 7117,
      "কাদ": 7118,
      "সাধারন": 7119,
      "##চাই": 7120,
      "পিঠে": 7121,
      "পাশেই": 7122,
      "ঝর": 7123,
      "নরেন্দ্র": 7124,
      "আঞ্চ": 7125,
      "ফাঁস": 7126,
      "মাছের": 7127,
      "মুক": 7128,
      "অনেকটাই": 7129,
      "অবলম্ব": 7130,
      "আস্ত": 7131,
      "৭৫": 7132,
      "ব্লক": 7133,
      "কমিউনি": 7134,
      "##িংয়ে": 7135,
      "দূরের": 7136,
      "##ie": 7137,
      "আঙুল": 7138,
      "সেঞ্চ": 7139,
      "পল্ল": 7140,
      "##নেই": 7141,
      "পরিবহন": 7142,
      "##সমূহ": 7143,
      "##মো": 7144,
      "বাথরুম": 7145,
      "##য়েড": 7146,
      "বন্দী": 7147,
      "যো": 7148,
      "যথাযথ": 7149,
      "##্রির": 7150,
      "##িসহ": 7151,
      "আমলে": 7152,
      "ছায়": 7153,
      "বেরো": 7154,
      "শ্রেণীর": 7155,
      "##ষ্ট্রে": 7156,
      "আঞ্চলিক": 7157,
      "দুর্ব": 7158,
      "##েপ": 7159,
      "##ঘু": 7160,
      "চার্জ": 7161,
      "উন্নয়নের": 7162,
      "চালক": 7163,
      "শ্রম": 7164,
      "পেঁ": 7165,
      "থাকুক": 7166,
      "খাম": 7167,
      "উচ্ছ": 7168,
      "আর্জ": 7169,
      "ভুট": 7170,
      "কণ্ঠে": 7171,
      "##বাহিনীর": 7172,
      "তাৎ": 7173,
      "বেড়িয়ে": 7174,
      "ফোনের": 7175,
      "হাক": 7176,
      "ভগবান": 7177,
      "পাচ্ছেন": 7178,
      "সৃষ্টির": 7179,
      "##ডিয়ার": 7180,
      "ঘণ্টার": 7181,
      "সহিংস": 7182,
      "ম্যানেজার": 7183,
      "বারে": 7184,
      "টোয়েন্ট": 7185,
      "ভাবছি": 7186,
      "চিকিৎসার": 7187,
      "সাজিয়ে": 7188,
      "##ুব্ধ": 7189,
      "পর্বে": 7190,
      "##রাও": 7191,
      "অয": 7192,
      "ক্যারিয়ার": 7193,
      "জামাল": 7194,
      "প্রয়": 7195,
      "নিন্দ": 7196,
      "ব্যান্ড": 7197,
      "##াবল": 7198,
      "ড্রাইভার": 7199,
      "ব্রহ্ম": 7200,
      "pl": 7201,
      "রাষ্ট্রীয়": 7202,
      "অভিষ": 7203,
      "বাস্তবায়ন": 7204,
      "##কতা": 7205,
      "দেখেছে": 7206,
      "উপরের": 7207,
      "পনের": 7208,
      "##্যানে": 7209,
      "কহিল": 7210,
      "বাসের": 7211,
      "সিঙ্গ": 7212,
      "##জাল": 7213,
      "রোগীর": 7214,
      "ক্যাল": 7215,
      "বাট": 7216,
      "পুজো": 7217,
      "##iy": 7218,
      "দমন": 7219,
      "মিনিটের": 7220,
      "ভ্রমণ": 7221,
      "সিনি": 7222,
      "তাড়া": 7223,
      "##ass": 7224,
      "##লাশ": 7225,
      "মাে": 7226,
      "##চিৎ": 7227,
      "সদস্যের": 7228,
      "##াগর": 7229,
      "লকড": 7230,
      "তখনো": 7231,
      "Am": 7232,
      "এজ": 7233,
      "বাংলাদেশকে": 7234,
      "##ঠাক": 7235,
      "##সভায়": 7236,
      "ব্রাহ্মণ": 7237,
      "##চী": 7238,
      "পির": 7239,
      "স্নান": 7240,
      "নিশ": 7241,
      "##ভেন": 7242,
      "স্বচ্ছ": 7243,
      "রেডি": 7244,
      "ভোরে": 7245,
      "সত্যিকার": 7246,
      "তারাই": 7247,
      "ঢেকে": 7248,
      "প্রতিযোগিতা": 7249,
      "##বিড়": 7250,
      "পরিবর্তে": 7251,
      "ওভার": 7252,
      "হও": 7253,
      "সুপারিশ": 7254,
      "Sh": 7255,
      "সৎ": 7256,
      "ইমে": 7257,
      "পৌর": 7258,
      "শোনার": 7259,
      "ফ্ল্যা": 7260,
      "রেস্ট": 7261,
      "do": 7262,
      "স্যারের": 7263,
      "মেন": 7264,
      "কামনা": 7265,
      "৩০০": 7266,
      "পার্ব": 7267,
      "##রূপে": 7268,
      "একাংশ": 7269,
      "আবদুর": 7270,
      "কারোর": 7271,
      "##টিই": 7272,
      "##্টু": 7273,
      "মৌলিক": 7274,
      "ভিক্ষ": 7275,
      "প্রকাশের": 7276,
      "##ge": 7277,
      "মুহুর": 7278,
      "সেট": 7279,
      "##শিপ": 7280,
      "##েম্বরে": 7281,
      "তাকায়": 7282,
      "দোয়া": 7283,
      "সাক্ষী": 7284,
      "চরিত্রে": 7285,
      "লী": 7286,
      "তহ": 7287,
      "অস্ট্রেলিয়ার": 7288,
      "ঝাপ": 7289,
      "একাই": 7290,
      "চাকর": 7291,
      "ঝাড়": 7292,
      "গর্": 7293,
      "দায়ের": 7294,
      "##শিল্পী": 7295,
      "##াগ্র": 7296,
      "অভাবে": 7297,
      "##চ্ছু": 7298,
      "নদীতে": 7299,
      "দরিদ্র": 7300,
      "##দায়ের": 7301,
      "##বিন্দ": 7302,
      "##োসিয়ে": 7303,
      "যম": 7304,
      "বোঝার": 7305,
      "যুগ্ম": 7306,
      "ডাকা": 7307,
      "শিক্ষিত": 7308,
      "হির": 7309,
      "মাত্রা": 7310,
      "##্টের": 7311,
      "##্লিশ": 7312,
      "নমুনা": 7313,
      "বিপ্লব": 7314,
      "সাফ": 7315,
      "নিলো": 7316,
      "প্রবাহ": 7317,
      "খুলনা": 7318,
      "পরাজিত": 7319,
      "##ুরির": 7320,
      "দাদু": 7321,
      "লক্ষণ": 7322,
      "প্ল্যান": 7323,
      "আগ্রহী": 7324,
      "পড়েছেন": 7325,
      "রাত্রি": 7326,
      "my": 7327,
      "##ally": 7328,
      "টুর্নাম": 7329,
      "নিউজিল": 7330,
      "বস্তু": 7331,
      "##71": 7332,
      "##ire": 7333,
      "সুখে": 7334,
      "ম্যাডাম": 7335,
      "পত্রিকায়": 7336,
      "ইকবাল": 7337,
      "দিনই": 7338,
      "তাহাকে": 7339,
      "##র্কের": 7340,
      "অপারেশন": 7341,
      "সাল্ল": 7342,
      "উপদেষ্টা": 7343,
      "জন্যও": 7344,
      "নাট্য": 7345,
      "##বিত্ত": 7346,
      "অগ্ন": 7347,
      "দিল্লি": 7348,
      "২০১৮": 7349,
      "##জী": 7350,
      "##্জা": 7351,
      "##ভর": 7352,
      "অপরি": 7353,
      "স্থগিত": 7354,
      "##িকো": 7355,
      "অমিত": 7356,
      "কিছুক্ষন": 7357,
      "আসছেন": 7358,
      "পঞ্চম": 7359,
      "বিবেক": 7360,
      "নেড়ে": 7361,
      "মামুন": 7362,
      "স্বাক্ষর": 7363,
      "কর্ণ": 7364,
      "বিস্ময়": 7365,
      "##টিয়া": 7366,
      "ধরিয়ে": 7367,
      "শপথ": 7368,
      "স্টেশনে": 7369,
      "##ড্র": 7370,
      "কাউন্সিলর": 7371,
      "##্জি": 7372,
      "রাব": 7373,
      "##্সের": 7374,
      "বাড়তে": 7375,
      "##িসির": 7376,
      "##বাহিনী": 7377,
      "গ্য": 7378,
      "চাদ": 7379,
      "আব্ব": 7380,
      "##ব্রত": 7381,
      "চারজন": 7382,
      "মনির": 7383,
      "বর্ধ": 7384,
      "মোকাব": 7385,
      "চাঁদের": 7386,
      "হারে": 7387,
      "হৈ": 7388,
      "##ৃষ্ণ": 7389,
      "সাইকেল": 7390,
      "তম": 7391,
      "মারতে": 7392,
      "##ত্বের": 7393,
      "ii": 7394,
      "ডাকাত": 7395,
      "শীতের": 7396,
      "নায়ক": 7397,
      "রেজা": 7398,
      "সেন্টার": 7399,
      "##িদে": 7400,
      "করুণ": 7401,
      "উপে": 7402,
      "##িজে": 7403,
      "man": 7404,
      "ফোঁ": 7405,
      "কাঁটা": 7406,
      "সুমন": 7407,
      "ফাল": 7408,
      "অষ্ট": 7409,
      "##তাদের": 7410,
      "ওরফে": 7411,
      "কেনার": 7412,
      "মার্কে": 7413,
      "##ভেট": 7414,
      "হেন": 7415,
      "ভার্স": 7416,
      "মধুর": 7417,
      "মিশ্র": 7418,
      "##তাে": 7419,
      "বৈধ": 7420,
      "ম্যাক": 7421,
      "পেটে": 7422,
      "আয়াত": 7423,
      "মর্যাদা": 7424,
      "যাইতে": 7425,
      "রোনাল": 7426,
      "পালা": 7427,
      "মহাসড়": 7428,
      "সহযোগী": 7429,
      "যানবাহ": 7430,
      "ন্যাশনাল": 7431,
      "বলছিলেন": 7432,
      "##ংকার": 7433,
      "হাদ": 7434,
      "মিস্টার": 7435,
      "রাজীব": 7436,
      "পণ": 7437,
      "An": 7438,
      "সন্ধ্যার": 7439,
      "ইউনিভার্সিটি": 7440,
      "দেশকে": 7441,
      "ক্রিকেটে": 7442,
      "আন্দোলনে": 7443,
      "সায়ে": 7444,
      "ফায়ার": 7445,
      "অমর": 7446,
      "শোনে": 7447,
      "সমূহ": 7448,
      "মুচকি": 7449,
      "দক্ষি": 7450,
      "উইন্ড": 7451,
      "শের": 7452,
      "নেবেন": 7453,
      "হাড়": 7454,
      "##োগ্র": 7455,
      "করাই": 7456,
      "পকেট": 7457,
      "জয়ী": 7458,
      "##ip": 7459,
      "##জরে": 7460,
      "দ্বার": 7461,
      "##রাত": 7462,
      "স্টার": 7463,
      "##গাঁও": 7464,
      "সিনিয়র": 7465,
      "ইউপি": 7466,
      "ইউএন": 7467,
      "##out": 7468,
      "আবেদ": 7469,
      "নিষেধাজ্ঞ": 7470,
      "##গীর": 7471,
      "su": 7472,
      "মানবিক": 7473,
      "দেখেছেন": 7474,
      "ঠা": 7475,
      "নেশা": 7476,
      "অবস": 7477,
      "রইলো": 7478,
      "উপস্থিতি": 7479,
      "হিজ": 7480,
      "সন্ত্রাসী": 7481,
      "##ove": 7482,
      "কমপ্লে": 7483,
      "অ্যাট": 7484,
      "মঞ্চে": 7485,
      "এমনিতেই": 7486,
      "জগৎ": 7487,
      "রত": 7488,
      "বসল": 7489,
      "নেব": 7490,
      "অটো": 7491,
      "##ানন্দ": 7492,
      "স্বর্গ": 7493,
      "১৯২": 7494,
      "টন": 7495,
      "আচার": 7496,
      "কূটন": 7497,
      "##স্তা": 7498,
      "##ِي": 7499,
      "খানে": 7500,
      "ইন্ডিয়া": 7501,
      "ক্ষত": 7502,
      "মোতা": 7503,
      "ভাবছে": 7504,
      "অনেকগুলো": 7505,
      "কুড়ি": 7506,
      "##ায়নের": 7507,
      "দাঁড়িয়েছে": 7508,
      "ne": 7509,
      "জরি": 7510,
      "রক": 7511,
      "##চো": 7512,
      "নাজ": 7513,
      "##ich": 7514,
      "##বর্ণ": 7515,
      "ফেলার": 7516,
      "##ভ্য": 7517,
      "##ber": 7518,
      "চেহার": 7519,
      "##শব্দ": 7520,
      "নিযুক্ত": 7521,
      "প্রবাসী": 7522,
      "##কাঠ": 7523,
      "বন্দর": 7524,
      "ঘাম": 7525,
      "দেখিনি": 7526,
      "ওজন": 7527,
      "কইরা": 7528,
      "##থির": 7529,
      "সাবধান": 7530,
      "ভালোবেসে": 7531,
      "তুলনা": 7532,
      "ফেডার": 7533,
      "ঝরে": 7534,
      "বলিতে": 7535,
      "গোপাল": 7536,
      "পাড়ি": 7537,
      "আধা": 7538,
      "##মারের": 7539,
      "##লগ্ন": 7540,
      "খাবে": 7541,
      "মহাপ": 7542,
      "অতিক্রম": 7543,
      "মিউজ": 7544,
      "চলছিল": 7545,
      "স্মার্টফোন": 7546,
      "বিষয়টা": 7547,
      "বিচারক": 7548,
      "কিউ": 7549,
      "স্র": 7550,
      "##ঝি": 7551,
      "গান্ধ": 7552,
      "বাক্স": 7553,
      "চৌধুরীর": 7554,
      "প্রথমেই": 7555,
      "বলিলেন": 7556,
      "Re": 7557,
      "বন্দুক": 7558,
      "হব": 7559,
      "লোকেরা": 7560,
      "ওপেন": 7561,
      "ট্রেনে": 7562,
      "##্বস্ত": 7563,
      "##িসে": 7564,
      "##ন্তু": 7565,
      "নেয়ার": 7566,
      "কারাদ": 7567,
      "এখ": 7568,
      "গের": 7569,
      "##াফিক": 7570,
      "পারেনা": 7571,
      "দিগ": 7572,
      "##াইড": 7573,
      "আকা": 7574,
      "##মালা": 7575,
      "কৃতজ্ঞ": 7576,
      "প্রশ্নে": 7577,
      "বয়সের": 7578,
      "লোকটি": 7579,
      "হবেনা": 7580,
      "আরাম": 7581,
      "পাথরের": 7582,
      "##এইচ": 7583,
      "ভাঁ": 7584,
      "##ink": 7585,
      "জাহাঙ্গীর": 7586,
      "##hen": 7587,
      "লেখাপ": 7588,
      "হ্র": 7589,
      "মহাব": 7590,
      "একাত্ত": 7591,
      "জাহান": 7592,
      "আক্তার": 7593,
      "##উদ্দীন": 7594,
      "পিপ": 7595,
      "ছুটির": 7596,
      "সূর্যের": 7597,
      "##ন্দু": 7598,
      "নও": 7599,
      "অবিশ্বাস": 7600,
      "কষ্টে": 7601,
      "##সেন্স": 7602,
      "ফটো": 7603,
      "বক্তৃতা": 7604,
      "যাহা": 7605,
      "##পর্য": 7606,
      "মজুম": 7607,
      "প্রাস": 7608,
      "##ঞ্": 7609,
      "ধৈ": 7610,
      "বিবরণ": 7611,
      "লিমি": 7612,
      "সম্প্রদায়ের": 7613,
      "আর্জেন্ট": 7614,
      "তাকালো": 7615,
      "আইপি": 7616,
      "বাঁশ": 7617,
      "##েলো": 7618,
      "জাদু": 7619,
      "মাধ": 7620,
      "বাঁচাতে": 7621,
      "ক্ষণ": 7622,
      "ধুয়ে": 7623,
      "বাক্য": 7624,
      "করিবার": 7625,
      "##কেত": 7626,
      "অ্যাকাউন্ট": 7627,
      "দিতেই": 7628,
      "হাবিব": 7629,
      "মাঝেই": 7630,
      "বান্দ": 7631,
      "একদিকে": 7632,
      "##রাসের": 7633,
      "১৯১": 7634,
      "##তলায়": 7635,
      "##্যাড": 7636,
      "can": 7637,
      "উত্তম": 7638,
      "##দানের": 7639,
      "পাইনি": 7640,
      "##েলি": 7641,
      "মরি": 7642,
      "বিদেশী": 7643,
      "ফুলে": 7644,
      "##ice": 7645,
      "জানাই": 7646,
      "দেখলেন": 7647,
      "##াইলের": 7648,
      "হাসির": 7649,
      "নামতে": 7650,
      "তালে": 7651,
      "বাপের": 7652,
      "##ould": 7653,
      "জী": 7654,
      "নুরুল": 7655,
      "we": 7656,
      "ইভ": 7657,
      "##েষে": 7658,
      "অস্বা": 7659,
      "জমিদার": 7660,
      "ভালবাসার": 7661,
      "প্রতিবন্ধ": 7662,
      "এশিয়া": 7663,
      "দুনিয়া": 7664,
      "হ্যালো": 7665,
      "প্রতিবাদে": 7666,
      "আয়ান": 7667,
      "ত্ব": 7668,
      "আমরাও": 7669,
      "নিপ": 7670,
      "se": 7671,
      "##ন্টি": 7672,
      "##av": 7673,
      "আদিত্য": 7674,
      "ইস্ট": 7675,
      "##19": 7676,
      "বনে": 7677,
      "পাল্টে": 7678,
      "উপস্থাপন": 7679,
      "##ম্বে": 7680,
      "ধর্": 7681,
      "উপলব্ধি": 7682,
      "সাময়িক": 7683,
      "ট্রান্স": 7684,
      "ল্যাপ": 7685,
      "২০০৭": 7686,
      "নিয়ন্ত্রণে": 7687,
      "গরিব": 7688,
      "বিচিত্র": 7689,
      "দায়িত্বে": 7690,
      "যাচাই": 7691,
      "দাশ": 7692,
      "প্রশাসক": 7693,
      "##থিত": 7694,
      "অধ্যায়": 7695,
      "##বর্ধ": 7696,
      "জরিমানা": 7697,
      "বর্ণিত": 7698,
      "বিদ্যুত": 7699,
      "ব্যার": 7700,
      "কাঠের": 7701,
      "বোতল": 7702,
      "দফতর": 7703,
      "তারাও": 7704,
      "টেবিলের": 7705,
      "ওভারে": 7706,
      "চারিদিকে": 7707,
      "ইস্য": 7708,
      "আরম্ভ": 7709,
      "পরিসং": 7710,
      "শোভা": 7711,
      "##তঃ": 7712,
      "প্রযোজ": 7713,
      "ইনিংস": 7714,
      "অপহ": 7715,
      "সিঁড়ি": 7716,
      "কোয়ার": 7717,
      "বন্দ্যোপাধ্যায়": 7718,
      "##বাক": 7719,
      "sp": 7720,
      "উপাচার্য": 7721,
      "দফতরের": 7722,
      "শাখার": 7723,
      "চিল": 7724,
      "জামাত": 7725,
      "গজ": 7726,
      "থামিয়ে": 7727,
      "নইলে": 7728,
      "প্রশাসনিক": 7729,
      "করুক": 7730,
      "মারাত্মক": 7731,
      "ওয়ানডে": 7732,
      "অস্বাভাবিক": 7733,
      "সাল্লাল্লাহু": 7734,
      "উঁ": 7735,
      "##ide": 7736,
      "পরিবর্তনের": 7737,
      "জামাই": 7738,
      "##ous": 7739,
      "##েরি": 7740,
      "বাচ্চাদের": 7741,
      "And": 7742,
      "চাপে": 7743,
      "স্টু": 7744,
      "##শেদ": 7745,
      "আসবেন": 7746,
      "টাক": 7747,
      "সুশ": 7748,
      "নৃ": 7749,
      "পরিশ্রম": 7750,
      "চারপাশে": 7751,
      "করানো": 7752,
      "লিপ": 7753,
      "##ডিয়া": 7754,
      "কোল": 7755,
      "ক্লাবের": 7756,
      "##ওয়াত": 7757,
      "##াতেও": 7758,
      "অলিম্প": 7759,
      "##ব্ব": 7760,
      "কাজটি": 7761,
      "চিন্তার": 7762,
      "মুসলমানদের": 7763,
      "অর্ডার": 7764,
      "শাক": 7765,
      "ছেল": 7766,
      "##পিত": 7767,
      "##যোগী": 7768,
      "দেয়াল": 7769,
      "সম্রাট": 7770,
      "Is": 7771,
      "গ্রুপের": 7772,
      "আঘ": 7773,
      "গ্রামী": 7774,
      "সম্পর্কিত": 7775,
      "##খের": 7776,
      "লেনদ": 7777,
      "সেখানকার": 7778,
      "নহে": 7779,
      "গ্রহণের": 7780,
      "দ্বী": 7781,
      "অনুমান": 7782,
      "থাকল": 7783,
      "চারদিকে": 7784,
      "##iz": 7785,
      "##ond": 7786,
      "ফসল": 7787,
      "হোসেনের": 7788,
      "অধিবেশ": 7789,
      "ইহা": 7790,
      "আঁকা": 7791,
      "গঠনের": 7792,
      "##ন্তী": 7793,
      "মস্ত": 7794,
      "##করণ": 7795,
      "মালা": 7796,
      "##েত্রে": 7797,
      "সার্চ": 7798,
      "যুগের": 7799,
      "ব্যক্তিকে": 7800,
      "রাজনীতিতে": 7801,
      "ভয়ংকর": 7802,
      "ধ্র": 7803,
      "যন্ত্রণা": 7804,
      "পট": 7805,
      "##য়েত": 7806,
      "আলু": 7807,
      "সৈনিক": 7808,
      "চেনে": 7809,
      "কর্মকর্তাদের": 7810,
      "আস্থা": 7811,
      "ঘৃণা": 7812,
      "আমারও": 7813,
      "সোশ": 7814,
      "##বোর্ড": 7815,
      "গন্তব্য": 7816,
      "বোর": 7817,
      "নিস্ত": 7818,
      "পঞ্চাশ": 7819,
      "ফজল": 7820,
      "এশ": 7821,
      "ছেলেমেয়ে": 7822,
      "মানতে": 7823,
      "২০০১": 7824,
      "##ফ্র": 7825,
      "কর্মচারী": 7826,
      "হরতাল": 7827,
      "##adesh": 7828,
      "অধীন": 7829,
      "উৎসবের": 7830,
      "বার্ষিক": 7831,
      "ব্রেক": 7832,
      "অপূর": 7833,
      "টেস্টে": 7834,
      "##াদুর": 7835,
      "স্নি": 7836,
      "##াইটে": 7837,
      "ম্যানেজ": 7838,
      "বসার": 7839,
      "kor": 7840,
      "##দীর": 7841,
      "বিশ্লেষণ": 7842,
      "##ফোনে": 7843,
      "##হত্য": 7844,
      "ধর্ষণের": 7845,
      "সুলতান": 7846,
      "##্রত": 7847,
      "সম্মুখ": 7848,
      "কমল": 7849,
      "##ঃপর": 7850,
      "##ক্রমে": 7851,
      "নির্দেশনা": 7852,
      "ভট্ট": 7853,
      "পুলিশকে": 7854,
      "ছাপা": 7855,
      "আমারে": 7856,
      "সিনেমার": 7857,
      "গালে": 7858,
      "সংসারে": 7859,
      "নু": 7860,
      "##মাত্রা": 7861,
      "so": 7862,
      "চড়ে": 7863,
      "কাঁচা": 7864,
      "স্বজন": 7865,
      "##ase": 7866,
      "নোং": 7867,
      "রাত্রে": 7868,
      "আহা": 7869,
      "মেধ": 7870,
      "##ans": 7871,
      "ছোঁয়া": 7872,
      "টেলিভিশন": 7873,
      "দিকের": 7874,
      "##যােগ": 7875,
      "নিয়েছি": 7876,
      "ph": 7877,
      "তাহাদের": 7878,
      "##টেন": 7879,
      "বাড়বে": 7880,
      "নির্মাণের": 7881,
      "অনেকক্ষণ": 7882,
      "একথা": 7883,
      "শীতল": 7884,
      "হুজ": 7885,
      "৬৫": 7886,
      "বৈশিষ্ট্য": 7887,
      "বঞ্চিত": 7888,
      "সোশ্যাল": 7889,
      "##খিল": 7890,
      "ইলেকট্র": 7891,
      "আশ্বাস": 7892,
      "হিন্দ": 7893,
      "গালি": 7894,
      "মল্ল": 7895,
      "দুদিন": 7896,
      "ম্যাগ": 7897,
      "ছাত্রদের": 7898,
      "জোন": 7899,
      "ক্ষমত": 7900,
      "ফিস": 7901,
      "মিলন": 7902,
      "চাচা": 7903,
      "বাণী": 7904,
      "হৃদয়ের": 7905,
      "##্কি": 7906,
      "তালা": 7907,
      "##ীতিক": 7908,
      "ফিল্ম": 7909,
      "##্নান": 7910,
      "নাস্তিক": 7911,
      "জগতের": 7912,
      "ছুড়ে": 7913,
      "##াহীন": 7914,
      "##দু": 7915,
      "চালান": 7916,
      "অভিনেত্রী": 7917,
      "শৈশ": 7918,
      "শুকনো": 7919,
      "মেঝে": 7920,
      "ইলিশ": 7921,
      "নিষ্প": 7922,
      "অলি": 7923,
      "##ির্": 7924,
      "অনিয়": 7925,
      "গ্রামীণ": 7926,
      "##যাত্রা": 7927,
      "##্টন": 7928,
      "ডো": 7929,
      "বুদ্ধিম": 7930,
      "সপ্তাহের": 7931,
      "##েকের": 7932,
      "পেরেছে": 7933,
      "অপরের": 7934,
      "সান্ত": 7935,
      "নয়ন": 7936,
      "en": 7937,
      "##ash": 7938,
      "ওয়াল": 7939,
      "অতঃপর": 7940,
      "ব্যক্তিত্ব": 7941,
      "He": 7942,
      "আত্মহত্যা": 7943,
      "হলাে": 7944,
      "সংরক্ষণ": 7945,
      "পদত্যাগ": 7946,
      "##গুলা": 7947,
      "##িতো": 7948,
      "লাগলেন": 7949,
      "##ানিতে": 7950,
      "ভাইস": 7951,
      "##্যাক্ট": 7952,
      "সঙ্ক": 7953,
      "সাঈ": 7954,
      "##বধ": 7955,
      "##সম্ম": 7956,
      "গুছিয়ে": 7957,
      "সমুদ্রের": 7958,
      "বিজয়ী": 7959,
      "বিষয়ের": 7960,
      "অভিজ": 7961,
      "মাসুদ": 7962,
      "খুনের": 7963,
      "শাড়": 7964,
      "নিয়েছিল": 7965,
      "কীর": 7966,
      "##ence": 7967,
      "বাজেট": 7968,
      "জ্যেষ্ঠ": 7969,
      "##জয়": 7970,
      "ভেজা": 7971,
      "আকারে": 7972,
      "টুপ": 7973,
      "সংবিধান": 7974,
      "up": 7975,
      "##াদশ": 7976,
      "এইটা": 7977,
      "##াটা": 7978,
      "৩৯": 7979,
      "ঢাল": 7980,
      "##র্কে": 7981,
      "মহাসচিব": 7982,
      "পশু": 7983,
      "ভর্ত": 7984,
      "রেশ": 7985,
      "মাথাটা": 7986,
      "আবদুল্লাহ": 7987,
      "জানুয়ার": 7988,
      "রেহ": 7989,
      "মোটরস": 7990,
      "ভালই": 7991,
      "পলি": 7992,
      "সমাপ্ত": 7993,
      "তুলি": 7994,
      "সশস্ত্র": 7995,
      "মাখ": 7996,
      "দিতেন": 7997,
      "স্রো": 7998,
      "ডক্টর": 7999,
      "আফগানিস্ত": 8000,
      "জমিতে": 8001,
      "জাফর": 8002,
      "ড্রাইভ": 8003,
      "ক্ষু": 8004,
      "অদৃশ্য": 8005,
      "##cc": 8006,
      "গেলেই": 8007,
      "মিঠ": 8008,
      "আনিস": 8009,
      "##উন": 8010,
      "কুমিল্লা": 8011,
      "##কাম": 8012,
      "মেয়াদ": 8013,
      "আবারো": 8014,
      "মীর": 8015,
      "ফেব্রুয়ার": 8016,
      "কাছের": 8017,
      "##ংসে": 8018,
      "আন্তরিক": 8019,
      "##দূত": 8020,
      "রেজিস্ট": 8021,
      "##পর্যায়ে": 8022,
      "##িজীব": 8023,
      "কদিন": 8024,
      "প্রফেস": 8025,
      "প্রতিটা": 8026,
      "গোঁ": 8027,
      "আসলো": 8028,
      "থাকো": 8029,
      "মুভি": 8030,
      "##ফির": 8031,
      "করিলেন": 8032,
      "দুজনকে": 8033,
      "নির্যাতনের": 8034,
      "##ঠনিক": 8035,
      "দিব্য": 8036,
      "সীমা": 8037,
      "এইবার": 8038,
      "স্বর": 8039,
      "ভুগ": 8040,
      "উপাদান": 8041,
      "##দারি": 8042,
      "চশ": 8043,
      "কথাবার্তা": 8044,
      "##ন্দকার": 8045,
      "ঘোড়া": 8046,
      "আসনের": 8047,
      "মানেই": 8048,
      "যশোর": 8049,
      "প্রবন্ধ": 8050,
      "আমদানি": 8051,
      "##az": 8052,
      "রাখবেন": 8053,
      "কিচ্ছু": 8054,
      "গাছে": 8055,
      "##ork": 8056,
      "##নিতে": 8057,
      "হেম": 8058,
      "অ্যাসোসিয়ে": 8059,
      "৪১": 8060,
      "বৈষ": 8061,
      "অসুখ": 8062,
      "ফাইনাল": 8063,
      "চক্রবর্তী": 8064,
      "সুখী": 8065,
      "##per": 8066,
      "বললেই": 8067,
      "৪৭": 8068,
      "বহিঃ": 8069,
      "বসলো": 8070,
      "অনুশীল": 8071,
      "ছেলেরা": 8072,
      "সংসদের": 8073,
      "যোগ্যতা": 8074,
      "##পক্ষে": 8075,
      "##ফ্রে": 8076,
      "কমিয়ে": 8077,
      "বিছানা": 8078,
      "ঢেলে": 8079,
      "##শলী": 8080,
      "করবি": 8081,
      "কলম": 8082,
      "মেশিন": 8083,
      "ফরম": 8084,
      "উন": 8085,
      "##গঞ্জে": 8086,
      "খোঁজে": 8087,
      "ফার্স": 8088,
      "##াপে": 8089,
      "গিয়েছেন": 8090,
      "পরিদর্শ": 8091,
      "সতী": 8092,
      "নিখোঁ": 8093,
      "সংসদে": 8094,
      "কতদিন": 8095,
      "পৌছ": 8096,
      "সংশোধন": 8097,
      "চেয়ারে": 8098,
      "ঘুষ": 8099,
      "আগামীকাল": 8100,
      "##গুলিতে": 8101,
      "##িলাম": 8102,
      "মেইল": 8103,
      "গর্ত": 8104,
      "##ন্সের": 8105,
      "##ime": 8106,
      "থাকব": 8107,
      "ট্যাগ": 8108,
      "আকার": 8109,
      "##ফিন": 8110,
      "মৌসুমে": 8111,
      "পারলেন": 8112,
      "পাননি": 8113,
      "শুনলাম": 8114,
      "##ank": 8115,
      "সংক্ষ": 8116,
      "স্বার্থে": 8117,
      "ছড়া": 8118,
      "পূর্বা": 8119,
      "অনুক": 8120,
      "পর্যায়ের": 8121,
      "প্রবাস": 8122,
      "তাস": 8123,
      "##োধনী": 8124,
      "ছাই": 8125,
      "প্রকাশ্যে": 8126,
      "ঘটনাটি": 8127,
      "##লাল": 8128,
      "দেখিতে": 8129,
      "ব্যাল": 8130,
      "সড়কে": 8131,
      "le": 8132,
      "দেখিয়া": 8133,
      "মিটিং": 8134,
      "আসাদ": 8135,
      "এগার": 8136,
      "খাইয়ে": 8137,
      "প্রান্তে": 8138,
      "ফাট": 8139,
      "সুষ্ঠ": 8140,
      "মোটরসাই": 8141,
      "দিনাজ": 8142,
      "গ্লাস": 8143,
      "বলতেন": 8144,
      "চেষ্ট": 8145,
      "ব্যতিক্রম": 8146,
      "ফট": 8147,
      "বাড়াতে": 8148,
      "মণ্ডল": 8149,
      "বিপদে": 8150,
      "##োনায়": 8151,
      "মিসেস": 8152,
      "৪৪": 8153,
      "##থী": 8154,
      "পারতেন": 8155,
      "আয়ে": 8156,
      "##ইয়ে": 8157,
      "এগো": 8158,
      "উন্মুক্ত": 8159,
      "##্ডিং": 8160,
      "পরিশোধ": 8161,
      "স্ল": 8162,
      "##ফু": 8163,
      "কমান্ডার": 8164,
      "দুর্য": 8165,
      "ব্ল্যাক": 8166,
      "রুমের": 8167,
      "কয়েকবার": 8168,
      "##aw": 8169,
      "সুবিধ": 8170,
      "বোলার": 8171,
      "ট্যা": 8172,
      "হ্যান্ড": 8173,
      "প্যাকেট": 8174,
      "ইতিমধ্যেই": 8175,
      "##্থান": 8176,
      "##হোক": 8177,
      "ওঠেন": 8178,
      "জেন": 8179,
      "বিপরীত": 8180,
      "শিক্ষকদের": 8181,
      "আলীর": 8182,
      "অপরাধের": 8183,
      "##চ্য": 8184,
      "তিনিও": 8185,
      "দাঁড়াল": 8186,
      "ডেম": 8187,
      "বহির": 8188,
      "আমাদেরকে": 8189,
      "বয়স্ক": 8190,
      "আসলাম": 8191,
      "জাতিসংঘের": 8192,
      "অসীম": 8193,
      "জরুরী": 8194,
      "ধরেন": 8195,
      "দুঃখের": 8196,
      "শিউ": 8197,
      "##িদুল": 8198,
      "হোল": 8199,
      "সকালের": 8200,
      "##মুখী": 8201,
      "জোগাড়": 8202,
      "নিয়েছিলেন": 8203,
      "পাড়ে": 8204,
      "জনতা": 8205,
      "৫২": 8206,
      "তেজ": 8207,
      "##্রিম": 8208,
      "কতটুকু": 8209,
      "একজনকে": 8210,
      "একলা": 8211,
      "##ান্তে": 8212,
      "গোলে": 8213,
      "হিন": 8214,
      "All": 8215,
      "বিএস": 8216,
      "অংশের": 8217,
      "সেবার": 8218,
      "##্যাপ্ত": 8219,
      "টানে": 8220,
      "ক্য": 8221,
      "ফেন": 8222,
      "গেয়ে": 8223,
      "##বন্দর": 8224,
      "##ম্মদ": 8225,
      "খবরে": 8226,
      "বসেছে": 8227,
      "সিরিজের": 8228,
      "ঝিন": 8229,
      "বিধি": 8230,
      "বিন্দু": 8231,
      "##াবা": 8232,
      "##প্রতি": 8233,
      "আয়ের": 8234,
      "বর্গ": 8235,
      "আমল": 8236,
      "##কিল": 8237,
      "গভর্ন": 8238,
      "সুনাম": 8239,
      "রুট": 8240,
      "বীজ": 8241,
      "তেমনই": 8242,
      "প্রাইভেট": 8243,
      "Or": 8244,
      "##রক্ষ": 8245,
      "##ালয়": 8246,
      "ad": 8247,
      "##াবন": 8248,
      "ছাড়তে": 8249,
      "হৃদয়ে": 8250,
      "অরণ": 8251,
      "##দলের": 8252,
      "রিক্স": 8253,
      "যুগান্তর": 8254,
      "৪৩": 8255,
      "##ory": 8256,
      "ভ্যান": 8257,
      "মুশ": 8258,
      "সময়টা": 8259,
      "##েট": 8260,
      "##ণায়": 8261,
      "বিসি": 8262,
      "পিসি": 8263,
      "জানালার": 8264,
      "পরিবেশন": 8265,
      "তরফে": 8266,
      "ইদান": 8267,
      "নামটা": 8268,
      "ভয়ঙ্কর": 8269,
      "স্নেহ": 8270,
      "আবহাওয়া": 8271,
      "নৈতিক": 8272,
      "সীমাবদ্ধ": 8273,
      "ইবন": 8274,
      "গন": 8275,
      "মেলায়": 8276,
      "খাতা": 8277,
      "কেস": 8278,
      "ডায়ের": 8279,
      "রেড": 8280,
      "প্রাণের": 8281,
      "বিপরীতে": 8282,
      "ধারায়": 8283,
      "সফরে": 8284,
      "উত্তেজনা": 8285,
      "শফিক": 8286,
      "লাঠি": 8287,
      "সংক্রমণ": 8288,
      "##দো": 8289,
      "প্রত্যাহার": 8290,
      "প্রমাণিত": 8291,
      "সেলিম": 8292,
      "মিঃ": 8293,
      "বাস্তবে": 8294,
      "ইংল্যান্ডের": 8295,
      "উচিৎ": 8296,
      "##প্রকাশ": 8297,
      "একাক": 8298,
      "কলা": 8299,
      "স্বপ্নে": 8300,
      "রাঙ": 8301,
      "সাংগ": 8302,
      "রূপে": 8303,
      "##প্রধান": 8304,
      "এতটাই": 8305,
      "খবরের": 8306,
      "##ীতা": 8307,
      "চাকরির": 8308,
      "বেচ": 8309,
      "একট": 8310,
      "তাকাল": 8311,
      "জেম": 8312,
      "হাসিনার": 8313,
      "ব্লা": 8314,
      "##হাদ": 8315,
      "##জিদের": 8316,
      "Pr": 8317,
      "কুয়া": 8318,
      "##মক": 8319,
      "সম্ভাব্য": 8320,
      "##দ্বে": 8321,
      "##াকালে": 8322,
      "বোঝাতে": 8323,
      "লোকদের": 8324,
      "##হারে": 8325,
      "##্বাদ": 8326,
      "##man": 8327,
      "ঘড়ি": 8328,
      "বিশ্বকাপে": 8329,
      "ঐশী": 8330,
      "সেজন্য": 8331,
      "যানজ": 8332,
      "উচ্চারণ": 8333,
      "##বৃ": 8334,
      "একটুও": 8335,
      "রক্ষার": 8336,
      "চেয়েছিল": 8337,
      "প্রতিষ্ঠার": 8338,
      "##বিষয়ক": 8339,
      "ড্রেস": 8340,
      "চর্চা": 8341,
      "##হো": 8342,
      "##দাস": 8343,
      "প্রতিযোগিতায়": 8344,
      "##মেষ": 8345,
      "চালানোর": 8346,
      "নজরে": 8347,
      "দশকে": 8348,
      "খাচ্ছে": 8349,
      "বাড়ে": 8350,
      "সাধু": 8351,
      "টক": 8352,
      "পরিসংখ্যান": 8353,
      "যাবতীয়": 8354,
      "##পাট": 8355,
      "##তাল": 8356,
      "সাম্প্রদায়িক": 8357,
      "সমন্বয়": 8358,
      "দাদার": 8359,
      "শুকিয়ে": 8360,
      "মনোভাব": 8361,
      "বাঁচতে": 8362,
      "হামলায়": 8363,
      "অভিষেক": 8364,
      "##ল্লা": 8365,
      "দেখছেন": 8366,
      "##রীণ": 8367,
      "##য়ালি": 8368,
      "##চিত্রে": 8369,
      "সেটার": 8370,
      "ট্রাইব্য": 8371,
      "পকেটে": 8372,
      "২০০৬": 8373,
      "##ঘ্র": 8374,
      "দাঁড়াতে": 8375,
      "দুপুরের": 8376,
      "ঘাটে": 8377,
      "এটাকে": 8378,
      "থাকলো": 8379,
      "##িকেট": 8380,
      "শিবিরের": 8381,
      "দিলেও": 8382,
      "##াপ্রতিষ্ঠ": 8383,
      "থাকবো": 8384,
      "কাগজে": 8385,
      "##মেন": 8386,
      "জিনি": 8387,
      "থমকে": 8388,
      "রশিদ": 8389,
      "##াক্স": 8390,
      "সেরকম": 8391,
      "আগুনে": 8392,
      "##ানুর": 8393,
      "বজ": 8394,
      "রোহিঙ্গা": 8395,
      "বিশ্রাম": 8396,
      "##ডেন": 8397,
      "সেদিকে": 8398,
      "ইমরান": 8399,
      "##লোকের": 8400,
      "তফ": 8401,
      "করিবে": 8402,
      "সমঝ": 8403,
      "ন্যা": 8404,
      "শাস্ত": 8405,
      "ত্রুটি": 8406,
      "ফেটে": 8407,
      "লক্ষ্মী": 8408,
      "ভিক": 8409,
      "ইয়াহিয়া": 8410,
      "ইন্টারন": 8411,
      "রাতেই": 8412,
      "লাগলাম": 8413,
      "Pro": 8414,
      "খাওয়": 8415,
      "প্রতিবেশী": 8416,
      "দারিদ্র": 8417,
      "নিরপেক্ষ": 8418,
      "##াদির": 8419,
      "##ডেট": 8420,
      "প্ৰ": 8421,
      "##ভের": 8422,
      "সারি": 8423,
      "পদ্ধতিতে": 8424,
      "সন্দ": 8425,
      "সাংগঠনিক": 8426,
      "আইএস": 8427,
      "যাতায়াত": 8428,
      "দিবেন": 8429,
      "তাঁহ": 8430,
      "##uk": 8431,
      "ফাঁক": 8432,
      "বিভক্ত": 8433,
      "মোটেও": 8434,
      "ডাক্তারের": 8435,
      "##খর": 8436,
      "মোহন": 8437,
      "##ont": 8438,
      "কান্ন": 8439,
      "মালয়ে": 8440,
      "##ধারী": 8441,
      "জুটি": 8442,
      "ট্রেনের": 8443,
      "সমিতি": 8444,
      "গতিতে": 8445,
      "মগ": 8446,
      "লগ": 8447,
      "সংখ্যাল": 8448,
      "বিবি": 8449,
      "one": 8450,
      "সামনেই": 8451,
      "মৈ": 8452,
      "বারের": 8453,
      "শান্তির": 8454,
      "সংযুক্ত": 8455,
      "মৃত্যুদ": 8456,
      "সারার": 8457,
      "ওসব": 8458,
      "##োগ্রাফ": 8459,
      "অভিযোগের": 8460,
      "un": 8461,
      "ইংলিশ": 8462,
      "ফার্ম": 8463,
      "সামলাতে": 8464,
      "##ার্ড": 8465,
      "হাসে": 8466,
      "##পতির": 8467,
      "কাণ্ড": 8468,
      "who": 8469,
      "রাশ": 8470,
      "আহসান": 8471,
      "বৃষ্টিতে": 8472,
      "রংপুর": 8473,
      "##পিং": 8474,
      "##বাম": 8475,
      "কালের": 8476,
      "প্যান্ট": 8477,
      "কট": 8478,
      "জানাল": 8479,
      "পুতুল": 8480,
      "কষ্টের": 8481,
      "##শ্চিন্ত": 8482,
      "পাঠানোর": 8483,
      "সংক্ষিপ্ত": 8484,
      "করছিলাম": 8485,
      "জন্মের": 8486,
      "##ভাগ্য": 8487,
      "দিকেই": 8488,
      "Ar": 8489,
      "##টেক": 8490,
      "চমক": 8491,
      "নবীন": 8492,
      "##লস": 8493,
      "বিশ্বকাপের": 8494,
      "no": 8495,
      "কপাল": 8496,
      "নড়": 8497,
      "রিয়াল": 8498,
      "টেকটিউনসে": 8499,
      "##প্প": 8500,
      "ভাস্ক": 8501,
      "দণ্ড": 8502,
      "##বার্ষিক": 8503,
      "মস্তিষ্ক": 8504,
      "এতক্ষণ": 8505,
      "##কণ্ঠ": 8506,
      "চেতনা": 8507,
      "এবারে": 8508,
      "ফর্ম": 8509,
      "নাসির": 8510,
      "কর্প": 8511,
      "##গামী": 8512,
      "ব্যাঙ্ক": 8513,
      "প্রবণ": 8514,
      "ব্যক্তিরা": 8515,
      "ওসমান": 8516,
      "পিন": 8517,
      "বাঙালির": 8518,
      "মজুমদার": 8519,
      "##ীড়া": 8520,
      "বোলিং": 8521,
      "ধীর": 8522,
      "লাইনে": 8523,
      "##াব্য": 8524,
      "হাহ": 8525,
      "কর্মরত": 8526,
      "ট্রাম্পের": 8527,
      "ফাইনালে": 8528,
      "উদ্ভ": 8529,
      "ক্ষেত্র": 8530,
      "##َل": 8531,
      "সৌম্য": 8532,
      "গঙ্গ": 8533,
      "পৃষ্ঠা": 8534,
      "##খম": 8535,
      "##ace": 8536,
      "আর্টিকেল": 8537,
      "##ft": 8538,
      "অভিশ": 8539,
      "বাইক": 8540,
      "সর্": 8541,
      "##য়ারের": 8542,
      "বরিশাল": 8543,
      "চিন্তিত": 8544,
      "##র্পণ": 8545,
      "they": 8546,
      "থাকতেন": 8547,
      "Bangladesh": 8548,
      "আড়াল": 8549,
      "নিশ্চিন্ত": 8550,
      "মারে": 8551,
      "বাহির": 8552,
      "সুষ্ঠু": 8553,
      "অনন্য": 8554,
      "কানের": 8555,
      "##ُو": 8556,
      "নোয়া": 8557,
      "পড়লেন": 8558,
      "সমর্থক": 8559,
      "দেবীর": 8560,
      "বৃদ্ধির": 8561,
      "খ্রি": 8562,
      "##ত্তা": 8563,
      "কোভিড": 8564,
      "##ুলা": 8565,
      "লাইব্র": 8566,
      "মোটেই": 8567,
      "আসতেই": 8568,
      "বিদ্যমান": 8569,
      "ভেবেছিলাম": 8570,
      "ভৌ": 8571,
      "ভাবা": 8572,
      "বলতেই": 8573,
      "ব্রাজিল": 8574,
      "তারে": 8575,
      "অসম": 8576,
      "সাগরিকা": 8577,
      "মারধর": 8578,
      "করপোরেশনের": 8579,
      "আং": 8580,
      "সর্বা": 8581,
      "দায়ে": 8582,
      "নিখোঁজ": 8583,
      "রাগে": 8584,
      "As": 8585,
      "##েশ্বর": 8586,
      "প্রফেসর": 8587,
      "রঙিন": 8588,
      "প্রকৌশলী": 8589,
      "লঞ্চ": 8590,
      "ময়মনসিংহ": 8591,
      "অপূর্ব": 8592,
      "##বাহী": 8593,
      "কক্ষ": 8594,
      "##পাই": 8595,
      "উষ্ণ": 8596,
      "পাতার": 8597,
      "##মনির": 8598,
      "কাটাতে": 8599,
      "Ind": 8600,
      "##load": 8601,
      "অধিকারী": 8602,
      "সূচনা": 8603,
      "তারও": 8604,
      "আফ্রিকার": 8605,
      "এরশাদ": 8606,
      "##কট": 8607,
      "যাদ": 8608,
      "লাগিল": 8609,
      "যেতাম": 8610,
      "টাঙ্গ": 8611,
      "পেছনের": 8612,
      "উইকেটে": 8613,
      "বৌদি": 8614,
      "##ত্তির": 8615,
      "##কথা": 8616,
      "শতাধিক": 8617,
      "সাক্ষ্য": 8618,
      "পরিবারে": 8619,
      "উঠি": 8620,
      "##ভাষা": 8621,
      "চলমান": 8622,
      "যাবি": 8623,
      "ধরেছে": 8624,
      "হোস্ট": 8625,
      "মেয়েটাকে": 8626,
      "ঘণ্ট": 8627,
      "এক্সপ": 8628,
      "সংবাদমাধ্য": 8629,
      "পঞ্চায়েত": 8630,
      "##য়ারে": 8631,
      "তুমিও": 8632,
      "বিমানবন্দ": 8633,
      "পেট্র": 8634,
      "##পাত্র": 8635,
      "থিয়ে": 8636,
      "বোঝে": 8637,
      "সংসারের": 8638,
      "রাশিয়া": 8639,
      "পুজোর": 8640,
      "কদ": 8641,
      "অগ্রসর": 8642,
      "ওরে": 8643,
      "but": 8644,
      "মেসি": 8645,
      "##েয়": 8646,
      "ধৈর্য": 8647,
      "জামিন": 8648,
      "স্ত্রীকে": 8649,
      "৪৯": 8650,
      "বার্সেল": 8651,
      "পেরেছি": 8652,
      "##গুপ্ত": 8653,
      "কোড": 8654,
      "ঘাঁ": 8655,
      "প্রজন্মের": 8656,
      "প্রত্যাশা": 8657,
      "আইনশ": 8658,
      "আধিকার": 8659,
      "##ধী": 8660,
      "us": 8661,
      "স্পেশ": 8662,
      "রুহ": 8663,
      "##চারী": 8664,
      "কর্মকর্তার": 8665,
      "ফস": 8666,
      "মানববন্ধ": 8667,
      "ছল": 8668,
      "গানে": 8669,
      "উত্তেজিত": 8670,
      "গুম": 8671,
      "নিয়ো": 8672,
      "রচিত": 8673,
      "উপকার": 8674,
      "##্তন": 8675,
      "নিষেধাজ্ঞা": 8676,
      "অঞ্জ": 8677,
      "অর্জ": 8678,
      "##ound": 8679,
      "বিবেচনায়": 8680,
      "ওঁর": 8681,
      "his": 8682,
      "ঠাণ্ডা": 8683,
      "অমৃত": 8684,
      "ফুঁ": 8685,
      "##াকৃত": 8686,
      "বাড়ানো": 8687,
      "ওখান": 8688,
      "২০১৯": 8689,
      "পারতো": 8690,
      "দূতাব": 8691,
      "দীর্ঘশ্বাস": 8692,
      "পাকিস্তানী": 8693,
      "ঘটনাস্থলে": 8694,
      "##ণু": 8695,
      "সিড": 8696,
      "নিই": 8697,
      "রব": 8698,
      "নৃত্য": 8699,
      "সূরা": 8700,
      "গুড": 8701,
      "ইন্ট": 8702,
      "রেস্ত": 8703,
      "খুলতে": 8704,
      "ওদিক": 8705,
      "জ্যাক": 8706,
      "আদৌ": 8707,
      "নিষ্ঠুর": 8708,
      "সর্বত্র": 8709,
      "##ount": 8710,
      "দশকের": 8711,
      "৪৬": 8712,
      "##ey": 8713,
      "অ্যান্ট": 8714,
      "বুড়ি": 8715,
      "পার্": 8716,
      "এমনটা": 8717,
      "##িবির": 8718,
      "হস": 8719,
      "রপ্তানি": 8720,
      "মেহে": 8721,
      "লোকজনের": 8722,
      "##han": 8723,
      "পরিপ্রে": 8724,
      "শামী": 8725,
      "২০০০": 8726,
      "দলিল": 8727,
      "কোণে": 8728,
      "পিতার": 8729,
      "শৌ": 8730,
      "সমস্যায়": 8731,
      "হিন্দি": 8732,
      "ওয়ার্ডের": 8733,
      "##নেস": 8734,
      "##ত্তম": 8735,
      "৫১": 8736,
      "ডট": 8737,
      "চোট": 8738,
      "##দারের": 8739,
      "##ভিয়েত": 8740,
      "জন্মে": 8741,
      "##ানক": 8742,
      "কমলা": 8743,
      "এক্ষেত্রে": 8744,
      "ধরল": 8745,
      "ধরলো": 8746,
      "ফাউন্ড": 8747,
      "ইউটিউ": 8748,
      "##ঞ্চি": 8749,
      "আমেরিকায়": 8750,
      "এসি": 8751,
      "খুজে": 8752,
      "তিল": 8753,
      "লাইসেন্স": 8754,
      "দম্প": 8755,
      "##ian": 8756,
      "জাক": 8757,
      "##বাজারের": 8758,
      "##বিআই": 8759,
      "উফ": 8760,
      "ইন্ডিয়ান": 8761,
      "শরীফ": 8762,
      "##ঘরের": 8763,
      "কমেন্ট": 8764,
      "ভাইকে": 8765,
      "চিন্তায়": 8766,
      "কুপ": 8767,
      "হাঁটা": 8768,
      "জন্মগ্রহণ": 8769,
      "লাব": 8770,
      "জঙ্গল": 8771,
      "স্বাগত": 8772,
      "তারেক": 8773,
      "ইতিবাচক": 8774,
      "রোগের": 8775,
      "##জ্ঞানিক": 8776,
      "নোবেল": 8777,
      "মোবাইলে": 8778,
      "প্রথমবারের": 8779,
      "নির্মম": 8780,
      "প্রদীপ": 8781,
      "ইসরা": 8782,
      "ইব্র": 8783,
      "অন্যরকম": 8784,
      "সেম": 8785,
      "##াবাবু": 8786,
      "ঠে": 8787,
      "জীবিত": 8788,
      "বুলিয়ে": 8789,
      "##তীর": 8790,
      "নক্ষ": 8791,
      "চাইল": 8792,
      "ততক্ষণে": 8793,
      "দিয়েছিলাম": 8794,
      "টেলিফোন": 8795,
      "##ick": 8796,
      "স্বতন্ত্র": 8797,
      "ক্রিকেটের": 8798,
      "ঘোষণার": 8799,
      "##লেনি": 8800,
      "তর্ক": 8801,
      "##বাং": 8802,
      "গুট": 8803,
      "ইনিংসে": 8804,
      "ছেলেটার": 8805,
      "দেহের": 8806,
      "ফুটবলার": 8807,
      "##ৎসর": 8808,
      "নোংরা": 8809,
      "উর": 8810,
      "জাপান": 8811,
      "##শিত": 8812,
      "##গরি": 8813,
      "চিত": 8814,
      "##ক্ষ্ম": 8815,
      "রক্তে": 8816,
      "##্বিক": 8817,
      "পাচার": 8818,
      "কেঁপে": 8819,
      "তন্ম": 8820,
      "হলের": 8821,
      "##ম্": 8822,
      "পেয়েছিল": 8823,
      "##ধ্ব": 8824,
      "##ঞ্জের": 8825,
      "গায়": 8826,
      "ব্যবস্থার": 8827,
      "চেয়েছিলেন": 8828,
      "লাইট": 8829,
      "উস": 8830,
      "আল্লাহ্": 8831,
      "##াময়": 8832,
      "দালাল": 8833,
      "বিহার": 8834,
      "ফেরা": 8835,
      "আশপাশের": 8836,
      "##ষের": 8837,
      "##িচ": 8838,
      "##জাগ": 8839,
      "##সো": 8840,
      "##ফর": 8841,
      "রক্ষণ": 8842,
      "সার্ক": 8843,
      "##ধরনের": 8844,
      "দুইটা": 8845,
      "উল্লেখ্য": 8846,
      "প্লাস্ট": 8847,
      "##কলা": 8848,
      "ফ্লো": 8849,
      "লাইফ": 8850,
      "##দাতা": 8851,
      "##র্মা": 8852,
      "##ক্ষিতে": 8853,
      "ভীত": 8854,
      "সাউ": 8855,
      "##শ্রে": 8856,
      "দফায়": 8857,
      "##বার্ট": 8858,
      "তাব": 8859,
      "ষষ্ঠ": 8860,
      "একপর্যায়ে": 8861,
      "তুলেছে": 8862,
      "মহাম": 8863,
      "অনুরাগ": 8864,
      "মেজাজ": 8865,
      "মণি": 8866,
      "দিও": 8867,
      "দুশ্চিন্ত": 8868,
      "সাফল্যের": 8869,
      "সভাপতিত্বে": 8870,
      "ধ্রুব": 8871,
      "##পূ": 8872,
      "##কারীর": 8873,
      "ভারতবর্ষ": 8874,
      "##দিনী": 8875,
      "ভোটে": 8876,
      "##াবাদের": 8877,
      "মেম": 8878,
      "ঝুঁক": 8879,
      "মানা": 8880,
      "স্টেট": 8881,
      "অনা": 8882,
      "ঈশ্বরের": 8883,
      "পুড়িয়ে": 8884,
      "##able": 8885,
      "বাড়ানোর": 8886,
      "ছবিটা": 8887,
      "সন্তানদের": 8888,
      "চত্ব": 8889,
      "দেখলেই": 8890,
      "ধোঁয়া": 8891,
      "ইনস্টিটিউট": 8892,
      "বাগানে": 8893,
      "মোড়ে": 8894,
      "##ote": 8895,
      "কার্যালয়ের": 8896,
      "দুর্ঘটনায়": 8897,
      "##বাই": 8898,
      "##েম্বরের": 8899,
      "প্রতিনিয়ত": 8900,
      "চক্ষ": 8901,
      "রীতিমতো": 8902,
      "পেলো": 8903,
      "প্রহ": 8904,
      "কোনটা": 8905,
      "স্যাম": 8906,
      "##শাই": 8907,
      "ডাকতে": 8908,
      "##qu": 8909,
      "##ex": 8910,
      "##গেট": 8911,
      "##oad": 8912,
      "##ছিনা": 8913,
      "মাদ্রাস": 8914,
      "আগমন": 8915,
      "দুর্দান্ত": 8916,
      "অবন": 8917,
      "এপ": 8918,
      "##বাসীর": 8919,
      "ঢুকিয়ে": 8920,
      "দোল": 8921,
      "##সিন": 8922,
      "সৃজন": 8923,
      "মানের": 8924,
      "আয": 8925,
      "তাগ": 8926,
      "##পিট": 8927,
      "মেতে": 8928,
      "##াবলী": 8929,
      "একু": 8930,
      "পর্যবেক্ষণ": 8931,
      "ভবনে": 8932,
      "##ুলার": 8933,
      "গরীব": 8934,
      "নির্দেশে": 8935,
      "##িতেছে": 8936,
      "ঘটছে": 8937,
      "ঝাল": 8938,
      "মাও": 8939,
      "মন্দিরের": 8940,
      "##ফারে": 8941,
      "##হত্যার": 8942,
      "##্ডের": 8943,
      "অন্তর্": 8944,
      "##eng": 8945,
      "অস্বস্তি": 8946,
      "ki": 8947,
      "কায়ে": 8948,
      "ভাবতেই": 8949,
      "##োটাই": 8950,
      "##ফর্ম": 8951,
      "##ধ্যায়ের": 8952,
      "রজ": 8953,
      "Com": 8954,
      "##সাল": 8955,
      "পাসপোর্ট": 8956,
      "##ition": 8957,
      "##ুদ্দিন": 8958,
      "পড়েছি": 8959,
      "##পত্রের": 8960,
      "হুই": 8961,
      "পাইল": 8962,
      "আত্মা": 8963,
      "tr": 8964,
      "খত": 8965,
      "মিলনায়": 8966,
      "যেকোন": 8967,
      "চট্টগ্রামে": 8968,
      "উঠলাম": 8969,
      "পশ্চিমা": 8970,
      "ছিঁড়ে": 8971,
      "অমন": 8972,
      "##শ্রী": 8973,
      "ঘূর্ণ": 8974,
      "পাও": 8975,
      "পরিপূর্ণ": 8976,
      "দাপ": 8977,
      "রন": 8978,
      "গোছ": 8979,
      "ইউরোপীয়": 8980,
      "ধনী": 8981,
      "##হুর": 8982,
      "পরিপ্রেক্ষিতে": 8983,
      "কারাদণ্ড": 8984,
      "Un": 8985,
      "##টারের": 8986,
      "ফেলবে": 8987,
      "শব্দটি": 8988,
      "বাকী": 8989,
      "কৌতূহ": 8990,
      "বানাতে": 8991,
      "সহসভ": 8992,
      "##মধ্যে": 8993,
      "মধ্যবিত্ত": 8994,
      "##ug": 8995,
      "প্রমান": 8996,
      "নারীকে": 8997,
      "ফ্ল্যাট": 8998,
      "দুর্নীতির": 8999,
      "মিশিয়ে": 9000,
      "##ীমা": 9001,
      "##ভেদ": 9002,
      "##্যু": 9003,
      "##খাট": 9004,
      "হিংস": 9005,
      "আবদ": 9006,
      "চাইছেন": 9007,
      "বারো": 9008,
      "সংরক্ষিত": 9009,
      "চলল": 9010,
      "উজ": 9011,
      "সেঞ্চুরি": 9012,
      "cl": 9013,
      "কক্ষে": 9014,
      "ম্যাজ": 9015,
      "সেজে": 9016,
      "ক্ষেত্রেই": 9017,
      "জনগোষ্ঠ": 9018,
      "##ধারণের": 9019,
      "গুলোর": 9020,
      "শুনানি": 9021,
      "যুক্তরা": 9022,
      "নাইট": 9023,
      "বট": 9024,
      "আসছিল": 9025,
      "ত্রাণ": 9026,
      "গয়": 9027,
      "হেল্প": 9028,
      "পর্যাপ্ত": 9029,
      "নিঃশ্বাস": 9030,
      "বিগত": 9031,
      "কুসুম": 9032,
      "শুল": 9033,
      "##ুক্তির": 9034,
      "##খানেক": 9035,
      "##ফিস": 9036,
      "টিপে": 9037,
      "পাঠাতে": 9038,
      "উল্টে": 9039,
      "ফার্স্ট": 9040,
      "##গি": 9041,
      "##খ্যার": 9042,
      "##ঞ্ছ": 9043,
      "রেজাল্ট": 9044,
      "##ম্বার": 9045,
      "রহিম": 9046,
      "##ance": 9047,
      "##জীবন": 9048,
      "##বিজ্ঞান": 9049,
      "##নিং": 9050,
      "সমাবেশে": 9051,
      "চাবি": 9052,
      "৫৭": 9053,
      "কোম": 9054,
      "আগুনের": 9055,
      "ফ্রেশ": 9056,
      "প্রিম": 9057,
      "লোকটার": 9058,
      "অনিশ্চ": 9059,
      "##ুমা": 9060,
      "তুষ": 9061,
      "##াকালীন": 9062,
      "প্লা": 9063,
      "২য়": 9064,
      "হিল": 9065,
      "৫৪": 9066,
      "হবেই": 9067,
      "মহিলার": 9068,
      "দেননি": 9069,
      "আলে": 9070,
      "মুছ": 9071,
      "ওয়াসাল": 9072,
      "যােগ": 9073,
      "শিরোনাম": 9074,
      "দুনিয়ার": 9075,
      "পঁচ": 9076,
      "##স্বরে": 9077,
      "##সনের": 9078,
      "##act": 9079,
      "তীর": 9080,
      "##সংযোগ": 9081,
      "আত্মসম": 9082,
      "মহাকা": 9083,
      "রাশিয়ার": 9084,
      "নবাব": 9085,
      "##িতেই": 9086,
      "##উক": 9087,
      "##্লেন": 9088,
      "বিবৃতিতে": 9089,
      "ত্রিশ": 9090,
      "লড়": 9091,
      "সংখ্যক": 9092,
      "কমপক্ষে": 9093,
      "ডার": 9094,
      "কাটে": 9095,
      "এলাকাব": 9096,
      "নাটকের": 9097,
      "##ডিট": 9098,
      "রোধ": 9099,
      "হয়েও": 9100,
      "সহসভাপতি": 9101,
      "আম্মু": 9102,
      "##্যকর": 9103,
      "##oll": 9104,
      "দেরী": 9105,
      "উপস": 9106,
      "খন্দকার": 9107,
      "অর্থমন্ত্রী": 9108,
      "তিনটে": 9109,
      "গরুর": 9110,
      "উৎসবে": 9111,
      "তাহারা": 9112,
      "ডিজাইন": 9113,
      "##োপাধ্যায়ের": 9114,
      "খস": 9115,
      "##ফেল": 9116,
      "বাঁচিয়ে": 9117,
      "কেও": 9118,
      "প্রম": 9119,
      "তদন্তের": 9120,
      "জামায়াতের": 9121,
      "##ব্লিউ": 9122,
      "কেব": 9123,
      "##িউল": 9124,
      "##ara": 9125,
      "মাইক্রো": 9126,
      "##ভী": 9127,
      "সংস্কৃতির": 9128,
      "বলত": 9129,
      "মির্জা": 9130,
      "হিট": 9131,
      "##বক": 9132,
      "বিস্তৃত": 9133,
      "বেড়ায়": 9134,
      "১৯০": 9135,
      "একি": 9136,
      "ব্যাথা": 9137,
      "im": 9138,
      "##ড়িয়া": 9139,
      "বিবিসি": 9140,
      "কর্তা": 9141,
      "রেস": 9142,
      "##দিনে": 9143,
      "লেক": 9144,
      "##যুগ": 9145,
      "পাঠান": 9146,
      "সাবধানে": 9147,
      "them": 9148,
      "ঋষি": 9149,
      "প্রচেষ্টা": 9150,
      "উপেক্ষা": 9151,
      "করছো": 9152,
      "বন্যা": 9153,
      "প্রতিমন্ত্রী": 9154,
      "En": 9155,
      "লাভের": 9156,
      "আইনি": 9157,
      "আহ্বায়ক": 9158,
      "বাতি": 9159,
      "তীরে": 9160,
      "ক্লিন": 9161,
      "পশ": 9162,
      "প্রথা": 9163,
      "হ্যারি": 9164,
      "##ূপে": 9165,
      "##ভঙ্গ": 9166,
      "##ন্থা": 9167,
      "লজ্জায়": 9168,
      "লন্ডন": 9169,
      "অধিদপ্তরের": 9170,
      "রাজক": 9171,
      "ক্রমাগত": 9172,
      "কেয়ার": 9173,
      "##দিয়া": 9174,
      "টাইপ": 9175,
      "কারখানার": 9176,
      "বাগানের": 9177,
      "হোটেলের": 9178,
      "মসজিদে": 9179,
      "রোহিঙ্গ": 9180,
      "প্রভু": 9181,
      "আশার": 9182,
      "বাহিরে": 9183,
      "##সূত্র": 9184,
      "ডির": 9185,
      "##নিস্ট": 9186,
      "##ুড়ির": 9187,
      "জেরে": 9188,
      "দাঁড়ালো": 9189,
      "সম্মিল": 9190,
      "জনসংখ্যা": 9191,
      "শাহবাগ": 9192,
      "আইনশৃঙ্খলা": 9193,
      "বিজি": 9194,
      "টানতে": 9195,
      "যুক্তরাষ্ট্রে": 9196,
      "গবেষক": 9197,
      "ছাত্রছাত্র": 9198,
      "লাফিয়ে": 9199,
      "শিগ": 9200,
      "ঠিকঠাক": 9201,
      "সাহিত্যের": 9202,
      "প্রার্থীর": 9203,
      "##ান্ডার": 9204,
      "জিজ্ঞাসাবাদ": 9205,
      "বৈজ্ঞানিক": 9206,
      "টোয়েন্টি": 9207,
      "খড়": 9208,
      "খিল": 9209,
      "প্রতিবছর": 9210,
      "##িকেশন": 9211,
      "মর্": 9212,
      "যাচ্ছ": 9213,
      "স্টেডিয়": 9214,
      "মহাশ": 9215,
      "হাকিম": 9216,
      "ভেতরের": 9217,
      "বিজ্ঞানী": 9218,
      "##িয়াক": 9219,
      "##চয়": 9220,
      "##াবাড়ি": 9221,
      "রূপান্তর": 9222,
      "ফিট": 9223,
      "পাড়া": 9224,
      "বসিয়া": 9225,
      "##ৎস্য": 9226,
      "##বিশ্বাস": 9227,
      "ভালোভাবে": 9228,
      "জায়গাটা": 9229,
      "এসআই": 9230,
      "হটা": 9231,
      "##ডির": 9232,
      "ছা": 9233,
      "করপোরেশন": 9234,
      "##ার্টমেন্ট": 9235,
      "নম্বরে": 9236,
      "মেহ": 9237,
      "হার্ট": 9238,
      "একর": 9239,
      "অধ্যক্ষ": 9240,
      "ফিফ": 9241,
      "ছাদ": 9242,
      "##পান": 9243,
      "মাফ": 9244,
      "সার্বিক": 9245,
      "##ated": 9246,
      "কক্সবাজার": 9247,
      "জ্বালিয়ে": 9248,
      "বিভাগীয়": 9249,
      "has": 9250,
      "মন্দিরে": 9251,
      "১৯৭২": 9252,
      "##ক্তিক": 9253,
      "ইউএনও": 9254,
      "মুশক": 9255,
      "##মকা": 9256,
      "দলটি": 9257,
      "##িশীল": 9258,
      "জ্যাম": 9259,
      "ভারি": 9260,
      "যখনই": 9261,
      "উঁকি": 9262,
      "বলছিল": 9263,
      "দাওয়া": 9264,
      "এসবের": 9265,
      "পারা": 9266,
      "দশক": 9267,
      "খোল": 9268,
      "ধারনা": 9269,
      "রতন": 9270,
      "##সারণ": 9271,
      "ফেলি": 9272,
      "ওন": 9273,
      "##uc": 9274,
      "ভোরের": 9275,
      "##here": 9276,
      "আউ": 9277,
      "ওয়ার্ল": 9278,
      "হোয়া": 9279,
      "##মেলো": 9280,
      "প্রিন্স": 9281,
      "গবেষণার": 9282,
      "হাদীস": 9283,
      "গোপনে": 9284,
      "আপিল": 9285,
      "সোহাগ": 9286,
      "মুহূর্তের": 9287,
      "##ঠা": 9288,
      "৪০০": 9289,
      "পরিবেশে": 9290,
      "বিস্মিত": 9291,
      "শোভ": 9292,
      "জর্জ": 9293,
      "বিরাজ": 9294,
      "##ষ্ণা": 9295,
      "আবাসিক": 9296,
      "তিতির": 9297,
      "নাহলে": 9298,
      "অভ্যন্তরীণ": 9299,
      "দক্ষতা": 9300,
      "##াহা": 9301,
      "##নাই": 9302,
      "##কৃষ্ণ": 9303,
      "সাম্রাজ্য": 9304,
      "তপ": 9305,
      "কমেছে": 9306,
      "চুমু": 9307,
      "15": 9308,
      "অভিযানে": 9309,
      "##িরি": 9310,
      "ইউসু": 9311,
      "মশাই": 9312,
      "করোনাভাইরাস": 9313,
      "##িশনের": 9314,
      "##ult": 9315,
      "বলেনি": 9316,
      "কন্ট্র": 9317,
      "ছন্দ": 9318,
      "চুলের": 9319,
      "পেয়েছিলেন": 9320,
      "তুমিই": 9321,
      "##াগার": 9322,
      "##ov": 9323,
      "পরিমা": 9324,
      "বিশ্লেষ": 9325,
      "মধ্যপ্র": 9326,
      "আরোপ": 9327,
      "গেছিল": 9328,
      "চালা": 9329,
      "কেশ": 9330,
      "প্রদর্শনী": 9331,
      "বসানো": 9332,
      "কমিউনিস্ট": 9333,
      "সমঝো": 9334,
      "আইসি": 9335,
      "শ্রীর": 9336,
      "দুষ্ক": 9337,
      "ছুঁড়ে": 9338,
      "সেতুর": 9339,
      "গার্ল": 9340,
      "বাদী": 9341,
      "সামর্থ": 9342,
      "সময়েই": 9343,
      "ধাপে": 9344,
      "৫৬": 9345,
      "অনুপস্থিত": 9346,
      "ময়লা": 9347,
      "##খায়": 9348,
      "##দর্শী": 9349,
      "প্রতিষ্ঠাতা": 9350,
      "এসেই": 9351,
      "হামিদ": 9352,
      "গি": 9353,
      "ফেলেন": 9354,
      "২০০৫": 9355,
      "ওয়াশিং": 9356,
      "##pr": 9357,
      "বাংলাদেশী": 9358,
      "মেডিক্যাল": 9359,
      "একত্র": 9360,
      "বইটি": 9361,
      "সন্তুষ্ট": 9362,
      "##াধিকার": 9363,
      "##ফত": 9364,
      "বাণিজ্যিক": 9365,
      "ভূমিকম্প": 9366,
      "ইঁ": 9367,
      "##যে": 9368,
      "##ডাক": 9369,
      "##গুলিকে": 9370,
      "ইন্টারন্যাশনাল": 9371,
      "ফয়": 9372,
      "##োরের": 9373,
      "শোষ": 9374,
      "pe": 9375,
      "জাস্ট": 9376,
      "পেটের": 9377,
      "প্রকৌশল": 9378,
      "ইহার": 9379,
      "ঝল": 9380,
      "২০০৪": 9381,
      "যোগাযোগের": 9382,
      "শয": 9383,
      "##েন্দ্র": 9384,
      "##ার্জ": 9385,
      "মাগ": 9386,
      "হিং": 9387,
      "##vers": 9388,
      "স্লোগান": 9389,
      "##বিদ্ধ": 9390,
      "মাজ": 9391,
      "ব্যাস": 9392,
      "এটুকু": 9393,
      "##লেস": 9394,
      "মুশকিল": 9395,
      "ঘু": 9396,
      "ফেললাম": 9397,
      "বক্তব্যে": 9398,
      "আধিকারিক": 9399,
      "দাড়ি": 9400,
      "এমনভাবে": 9401,
      "নির্জন": 9402,
      "খুশ": 9403,
      "অবলম্বন": 9404,
      "লেখাপড়া": 9405,
      "কাস্ট": 9406,
      "হাউস": 9407,
      "বিরোধিতা": 9408,
      "এলোমেলো": 9409,
      "##গুন": 9410,
      "##pl": 9411,
      "সর্বনা": 9412,
      "kn": 9413,
      "নেত্র": 9414,
      "সাহা": 9415,
      "ঘেঁ": 9416,
      "ময়ন": 9417,
      "##air": 9418,
      "গাঢ়": 9419,
      "গণ্য": 9420,
      "##ownload": 9421,
      "##ৃক্ত": 9422,
      "৬৪": 9423,
      "এমপি": 9424,
      "চিনে": 9425,
      "খণ্ড": 9426,
      "টেলি": 9427,
      "সভার": 9428,
      "অনুষ": 9429,
      "##ৌক": 9430,
      "##াবাড়": 9431,
      "##ছড়ি": 9432,
      "##পাতে": 9433,
      "দুইটি": 9434,
      "তাতেই": 9435,
      "করেছ": 9436,
      "যুবলীগ": 9437,
      "Qu": 9438,
      "লাগা": 9439,
      "মন্ত্রিস": 9440,
      "##তলার": 9441,
      "পারিনা": 9442,
      "##গন": 9443,
      "##৭১": 9444,
      "ক্রীড়া": 9445,
      "ভাঙচুর": 9446,
      "উদার": 9447,
      "It": 9448,
      "লাইক": 9449,
      "শুদ্ধ": 9450,
      "রাজস্ব": 9451,
      "আমন্ত্রণ": 9452,
      "বিগ": 9453,
      "##tern": 9454,
      "আঁধার": 9455,
      "লঙ্ঘ": 9456,
      "শ্রদ্ধ": 9457,
      "সকলকে": 9458,
      "কাই": 9459,
      "বেঙ্গল": 9460,
      "মাক": 9461,
      "##ুনো": 9462,
      "ভালবাসি": 9463,
      "শরি": 9464,
      "##ণি": 9465,
      "Ad": 9466,
      "ল্যা": 9467,
      "##বাদে": 9468,
      "##ike": 9469,
      "##ধায়ক": 9470,
      "সারাজ": 9471,
      "পৌরসভার": 9472,
      "দিলেই": 9473,
      "অনুসার": 9474,
      "হোয়": 9475,
      "বলিস": 9476,
      "ডিভাই": 9477,
      "সাধ্য": 9478,
      "কোমল": 9479,
      "##বিহীন": 9480,
      "মেঘলা": 9481,
      "রাসূলুল্লাহ": 9482,
      "দিগন্ত": 9483,
      "সত্যতা": 9484,
      "##েকো": 9485,
      "##কিয়ে": 9486,
      "মৃতদেহ": 9487,
      "কাজল": 9488,
      "সরু": 9489,
      "##ther": 9490,
      "যাবৎ": 9491,
      "যানবাহন": 9492,
      "পাহাড়ি": 9493,
      "কিরে": 9494,
      "অর্থনীতির": 9495,
      "জ্বালা": 9496,
      "##শোধ": 9497,
      "অবসান": 9498,
      "##িজা": 9499,
      "##াগো": 9500,
      "তল্লা": 9501,
      "রিয়": 9502,
      "বিষ্ণ": 9503,
      "শোনো": 9504,
      "সেক্রে": 9505,
      "নকশা": 9506,
      "##ন্ত্রে": 9507,
      "বুদ্ধিজীব": 9508,
      "রাসেল": 9509,
      "তোলেন": 9510,
      "মৎস্য": 9511,
      "তব": 9512,
      "গ্রহন": 9513,
      "তদন্তে": 9514,
      "ঢোকার": 9515,
      "##সই": 9516,
      "আর্য": 9517,
      "পাহা": 9518,
      "মনোনীত": 9519,
      "আশীর": 9520,
      "ঠাকুরের": 9521,
      "শিগগির": 9522,
      "##াক্রমে": 9523,
      "##াসেব": 9524,
      "##ডিং": 9525,
      "উদ্ভাব": 9526,
      "যাত্রীদের": 9527,
      "অর্থের": 9528,
      "যাঁদের": 9529,
      "##ical": 9530,
      "গাম": 9531,
      "18": 9532,
      "মিষ্ট": 9533,
      "##রিটি": 9534,
      "##ose": 9535,
      "##oug": 9536,
      "আফ্রিকা": 9537,
      "রানী": 9538,
      "cont": 9539,
      "ag": 9540,
      "অনন্যা": 9541,
      "ওয়াসাল্লাম": 9542,
      "পরিত": 9543,
[...]
